{
  "version": "1.0",
  "truncation": null,
  "padding": null,
  "added_tokens": [
    {
      "id": 0,
      "content": "<PAD>",
      "single_word": false,
      "lstrip": false,
      "rstrip": false,
      "normalized": false,
      "special": true
    },
    {
      "id": 1,
      "content": "<UNK>",
      "single_word": false,
      "lstrip": false,
      "rstrip": false,
      "normalized": false,
      "special": true
    },
    {
      "id": 2,
      "content": "<|nl|>",
      "single_word": false,
      "lstrip": false,
      "rstrip": false,
      "normalized": false,
      "special": true
    },
    {
      "id": 3,
      "content": "<|code|>",
      "single_word": false,
      "lstrip": false,
      "rstrip": false,
      "normalized": false,
      "special": true
    },
    {
      "id": 4,
      "content": "<EOS>",
      "single_word": false,
      "lstrip": false,
      "rstrip": false,
      "normalized": false,
      "special": true
    }
  ],
  "normalizer": null,
  "pre_tokenizer": {
    "type": "ByteLevel",
    "add_prefix_space": false,
    "trim_offsets": true,
    "use_regex": true
  },
  "post_processor": null,
  "decoder": {
    "type": "ByteLevel",
    "add_prefix_space": true,
    "trim_offsets": true,
    "use_regex": true
  },
  "model": {
    "type": "BPE",
    "dropout": null,
    "unk_token": "<UNK>",
    "continuing_subword_prefix": null,
    "end_of_word_suffix": null,
    "fuse_unk": false,
    "byte_fallback": false,
    "ignore_merges": false,
    "vocab": {
      "<PAD>": 0,
      "<UNK>": 1,
      "<|nl|>": 2,
      "<|code|>": 3,
      "<EOS>": 4,
      "!": 5,
      "\"": 6,
      "#": 7,
      "$": 8,
      "%": 9,
      "&": 10,
      "'": 11,
      "(": 12,
      ")": 13,
      "*": 14,
      "+": 15,
      ",": 16,
      "-": 17,
      ".": 18,
      "/": 19,
      "0": 20,
      "1": 21,
      "2": 22,
      "3": 23,
      "4": 24,
      "5": 25,
      "6": 26,
      "7": 27,
      "8": 28,
      "9": 29,
      ":": 30,
      ";": 31,
      "<": 32,
      "=": 33,
      ">": 34,
      "?": 35,
      "@": 36,
      "A": 37,
      "B": 38,
      "C": 39,
      "D": 40,
      "E": 41,
      "F": 42,
      "G": 43,
      "H": 44,
      "I": 45,
      "J": 46,
      "K": 47,
      "L": 48,
      "M": 49,
      "N": 50,
      "O": 51,
      "P": 52,
      "Q": 53,
      "R": 54,
      "S": 55,
      "T": 56,
      "U": 57,
      "V": 58,
      "W": 59,
      "X": 60,
      "Y": 61,
      "Z": 62,
      "[": 63,
      "\\": 64,
      "]": 65,
      "^": 66,
      "_": 67,
      "`": 68,
      "a": 69,
      "b": 70,
      "c": 71,
      "d": 72,
      "e": 73,
      "f": 74,
      "g": 75,
      "h": 76,
      "i": 77,
      "j": 78,
      "k": 79,
      "l": 80,
      "m": 81,
      "n": 82,
      "o": 83,
      "p": 84,
      "q": 85,
      "r": 86,
      "s": 87,
      "t": 88,
      "u": 89,
      "v": 90,
      "w": 91,
      "x": 92,
      "y": 93,
      "z": 94,
      "{": 95,
      "|": 96,
      "}": 97,
      "~": 98,
      "£": 99,
      "¤": 100,
      "¥": 101,
      "©": 102,
      "«": 103,
      "¬": 104,
      "¯": 105,
      "±": 106,
      "³": 107,
      "¸": 108,
      "»": 109,
      "¼": 110,
      "½": 111,
      "Â": 112,
      "Ã": 113,
      "Å": 114,
      "Ç": 115,
      "Î": 116,
      "Ï": 117,
      "â": 118,
      "ã": 119,
      "æ": 120,
      "ï": 121,
      "ā": 122,
      "Ĉ": 123,
      "ĉ": 124,
      "Ċ": 125,
      "Ġ": 126,
      "Ģ": 127,
      "ģ": 128,
      "Ĥ": 129,
      "ĥ": 130,
      "Ħ": 131,
      "Ī": 132,
      "ĭ": 133,
      "į": 134,
      "İ": 135,
      "Ĵ": 136,
      "Ĺ": 137,
      "ĺ": 138,
      "Ļ": 139,
      "ľ": 140,
      "Ŀ": 141,
      "Ń": 142,
      "in": 143,
      "on": 144,
      "Ġa": 145,
      "th": 146,
      "st": 147,
      "Ġin": 148,
      "er": 149,
      "at": 150,
      "Ġt": 151,
      "or": 152,
      "ing": 153,
      "le": 154,
      "Ġf": 155,
      "re": 156,
      "ow": 157,
      "li": 158,
      "yth": 159,
      "ython": 160,
      "Ġto": 161,
      "Ġc": 162,
      "me": 163,
      "Ġd": 164,
      "Ġp": 165,
      "an": 166,
      "ar": 167,
      "se": 168,
      "Ġ'": 169,
      "Ġo": 170,
      "',": 171,
      "ct": 172,
      "How": 173,
      "Ġw": 174,
      "Python": 175,
      "('": 176,
      "al": 177,
      "list": 178,
      "ro": 179,
      "lo": 180,
      "Ġs": 181,
      "te": 182,
      "')": 183,
      "Ġof": 184,
      "um": 185,
      "ge": 186,
      "()": 187,
      "ra": 188,
      "Ġm": 189,
      "es": 190,
      "Ġi": 191,
      "ion": 192,
      "en": 193,
      "Ġth": 194,
      "str": 195,
      "Ġfor": 196,
      "Ġlist": 197,
      "ĠPython": 198,
      "Ġn": 199,
      "Ġ=": 200,
      "de": 201,
      "ti": 202,
      "ate": 203,
      "ith": 204,
      "Ġb": 205,
      "as": 206,
      "Ġwith": 207,
      "Ġv": 208,
      "))": 209,
      "nt": 210,
      "Ġthe": 211,
      "Ġe": 212,
      "Ġre": 213,
      "string": 214,
      "Ġpython": 215,
      "ol": 216,
      "ter": 217,
      "Ġan": 218,
      "Ġu": 219,
      "lot": 220,
      "ou": 221,
      "and": 222,
      "ue": 223,
      "ata": 224,
      "la": 225,
      "']": 226,
      "['": 227,
      "Ġstring": 228,
      "ke": 229,
      "int": 230,
      "rom": 231,
      "ul": 232,
      "ri": 233,
      "ĠI": 234,
      "ile": 235,
      "ver": 236,
      "om": 237,
      "up": 238,
      "ic": 239,
      "Ġfrom": 240,
      "Ġdi": 241,
      "Ġx": 242,
      "ce": 243,
      "\"\"": 244,
      "df": 245,
      "ction": 246,
      "Ġ1": 247,
      "ray": 248,
      "ame": 249,
      "how": 250,
      "Ġ2": 251,
      "plot": 252,
      "sing": 253,
      "ap": 254,
      "ve": 255,
      "is": 256,
      "rint": 257,
      "Ġval": 258,
      "ch": 259,
      "get": 260,
      "Ġar": 261,
      "ur": 262,
      "it": 263,
      "un": 264,
      "ad": 265,
      "py": 266,
      "to": 267,
      "pl": 268,
      "andas": 269,
      "ind": 270,
      "ment": 271,
      "set": 272,
      "lib": 273,
      "ut": 274,
      "Ġ(": 275,
      "Ġr": 276,
      "Ġnum": 277,
      "key": 278,
      "Ġon": 279,
      "Ġ[": 280,
      "\\\\": 281,
      "])": 282,
      "xt": 283,
      "ab": 284,
      "Ġcon": 285,
      "Ġdo": 286,
      "print": 287,
      "di": 288,
      "Ġcol": 289,
      "ec": 290,
      "el": 291,
      "time": 292,
      "Ġdata": 293,
      "tem": 294,
      "Ġarray": 295,
      "ode": 296,
      "rame": 297,
      "atplot": 298,
      "atplotlib": 299,
      "pa": 300,
      "Ġ-": 301,
      "umn": 302,
      "Ġfile": 303,
      "Ġand": 304,
      "ax": 305,
      "ues": 306,
      "ub": 307,
      "Ġch": 308,
      "Ġl": 309,
      "ting": 310,
      "],": 311,
      "Ġusing": 312,
      "Ġif": 313,
      "ary": 314,
      "pli": 315,
      "ers": 316,
      "ine": 317,
      "il": 318,
      "ord": 319,
      "ĠD": 320,
      "ple": 321,
      "Ġ3": 322,
      "mat": 323,
      "dex": 324,
      "et": 325,
      "ay": 326,
      "Ġse": 327,
      "ect": 328,
      "plt": 329,
      "ig": 330,
      "ss": 331,
      "ange": 332,
      "':": 333,
      "ulti": 334,
      "([": 335,
      "ĠP": 336,
      "Ġcolumn": 337,
      "able": 338,
      "lement": 339,
      "ma": 340,
      "all": 341,
      "ed": 342,
      "ser": 343,
      "Ġkey": 344,
      "00": 345,
      "Ġy": 346,
      "plit": 347,
      "Ġdiction": 348,
      "ces": 349,
      "Ġ0": 350,
      "='": 351,
      "oo": 352,
      "__": 353,
      "ĠS": 354,
      ").": 355,
      "Ġcan": 356,
      "ck": 357,
      "pen": 358,
      "ang": 359,
      "Ġvalues": 360,
      "ort": 361,
      "name": 362,
      "ot": 363,
      "Ġh": 364,
      "Ġg": 365,
      "show": 366,
      "ation": 367,
      "),": 368,
      "Ġget": 369,
      "my": 370,
      "con": 371,
      "Ġ+": 372,
      "qu": 373,
      "Re": 374,
      "mb": 375,
      "mo": 376,
      "Ġmatplotlib": 377,
      "roup": 378,
      "vert": 379,
      "Ġelement": 380,
      "date": 381,
      "Ġinto": 382,
      "Ġmulti": 383,
      "len": 384,
      "ip": 385,
      "Ġvalue": 386,
      "val": 387,
      "Ġpandas": 388,
      "id": 389,
      "bj": 390,
      "for": 391,
      "ll": 392,
      "Ġby": 393,
      "Ġway": 394,
      "Ġdictionary": 395,
      "ent": 396,
      "np": 397,
      "im": 398,
      "jo": 399,
      "da": 400,
      "pla": 401,
      "urn": 402,
      "ari": 403,
      "Ġnumpy": 404,
      "ango": 405,
      "par": 406,
      "jango": 407,
      "ex": 408,
      "out": 409,
      "mbda": 410,
      "os": 411,
      "Ġte": 412,
      "\"\"\"": 413,
      "lambda": 414,
      "join": 415,
      "Ġex": 416,
      "Ġnumb": 417,
      "uple": 418,
      "ĠM": 419,
      "pt": 420,
      "ist": 421,
      "bject": 422,
      "am": 423,
      "wo": 424,
      "Ġis": 425,
      "ĠC": 426,
      "pe": 427,
      "ta": 428,
      "Ġcom": 429,
      "ir": 430,
      ")]": 431,
      "ff": 432,
      "frame": 433,
      "turn": 434,
      "Ġlo": 435,
      "Ġplot": 436,
      "od": 437,
      "ted": 438,
      "ount": 439,
      "act": 440,
      "Ġrow": 441,
      "pre": 442,
      "que": 443,
      "ew": 444,
      "ĠN": 445,
      "Ġchar": 446,
      "Ġ4": 447,
      "file": 448,
      "item": 449,
      "Ġtwo": 450,
      "Tr": 451,
      "lf": 452,
      "())": 453,
      "ase": 454,
      "Ġst": 455,
      "res": 456,
      "split": 457,
      "{'": 458,
      "index": 459,
      "dd": 460,
      "Ġ*": 461,
      "'))": 462,
      "path": 463,
      "Ġsub": 464,
      "Ġsc": 465,
      "Ġall": 466,
      "iz": 467,
      "python": 468,
      "tr": 469,
      "com": 470,
      "nd": 471,
      "Ġ%": 472,
      "by": 473,
      "sion": 474,
      "Ġmultiple": 475,
      "unction": 476,
      "Ġwh": 477,
      "ĠF": 478,
      "[:": 479,
      "Ġitem": 480,
      "True": 481,
      "Con": 482,
      "place": 483,
      "sor": 484,
      "pro": 485,
      "op": 486,
      "sub": 487,
      "put": 488,
      "Ġlists": 489,
      "reate": 490,
      "Ġun": 491,
      "Ġ5": 492,
      "Ġdate": 493,
      "las": 494,
      "ime": 495,
      "ere": 496,
      "Ġline": 497,
      "data": 498,
      "Ġdataframe": 499,
      "ly": 500,
      "Ġde": 501,
      "sy": 502,
      "Ġtuple": 503,
      "return": 504,
      "arg": 505,
      "cess": 506,
      "ĠA": 507,
      "Ġhow": 508,
      "Ġpro": 509,
      "ĠT": 510,
      "dict": 511,
      "').": 512,
      "rite": 513,
      "'.": 514,
      "col": 515,
      "Ġ==": 516,
      "Ġcharact": 517,
      "est": 518,
      "one": 519,
      "Ġax": 520,
      "gg": 521,
      "ĠL": 522,
      "array": 523,
      "Ġtext": 524,
      "lab": 525,
      "ariable": 526,
      "move": 527,
      "group": 528,
      "Ġfunction": 529,
      "Ġrange": 530,
      "find": 531,
      "Ġelements": 532,
      "Frame": 533,
      "Ġset": 534,
      "Ġconvert": 535,
      "ype": 536,
      "ther": 537,
      "ĠData": 538,
      "Ġk": 539,
      "sh": 540,
      "ĠPandas": 541,
      "Ġas": 542,
      "ave": 543,
      "if": 544,
      "code": 545,
      "Ġdf": 546,
      "ult": 547,
      "Ġma": 548,
      "Ġuse": 549,
      "format": 550,
      "sum": 551,
      "tt": 552,
      "Ġmat": 553,
      "Ġobject": 554,
      "Ġnumber": 555,
      "ize": 556,
      "Ġaxis": 557,
      "Ġen": 558,
      "Ġpa": 559,
      "ute": 560,
      "Ġvariable": 561,
      "'s": 562,
      "Ġname": 563,
      "Ġcolumns": 564,
      "ĠHow": 565,
      "Ġpar": 566,
      "quest": 567,
      "'])": 568,
      "mage": 569,
      "cat": 570,
      "map": 571,
      "self": 572,
      "zip": 573,
      "ome": 574,
      "Ġindex": 575,
      "Ġone": 576,
      "Ġdict": 577,
      "Ġtime": 578,
      "tain": 579,
      "ilter": 580,
      "Ġit": 581,
      "read": 582,
      "Ġle": 583,
      "().": 584,
      "Ġmy": 585,
      "eck": 586,
      "label": 587,
      "Ġsp": 588,
      "(['": 589,
      "fig": 590,
      "gex": 591,
      "son": 592,
      "ĠU": 593,
      "Ġme": 594,
      "Ġj": 595,
      "((": 596,
      "umpy": 597,
      "ating": 598,
      "indow": 599,
      "foo": 600,
      "datetime": 601,
      "Ġcreate": 602,
      "Ġformat": 603,
      "andom": 604,
      "du": 605,
      "ore": 606,
      "axis": 607,
      "ply": 608,
      "ape": 609,
      "Ġadd": 610,
      "iel": 611,
      "teg": 612,
      "Ġthat": 613,
      "ield": 614,
      "Ġap": 615,
      "ript": 616,
      "ack": 617,
      "ssion": 618,
      "order": 619,
      "Ġstrings": 620,
      "items": 621,
      "'].": 622,
      "odel": 623,
      "our": 624,
      "Ġmake": 625,
      "Get": 626,
      "ph": 627,
      "ĠB": 628,
      "Ġfind": 629,
      "Ġpo": 630,
      "test": 631,
      "sys": 632,
      "Ġword": 633,
      "In": 634,
      "age": 635,
      "ies": 636,
      "lect": 637,
      "ĠDataFrame": 638,
      "inter": 639,
      "we": 640,
      "Ġspec": 641,
      "ure": 642,
      "10": 643,
      "Ġnp": 644,
      "ĠDjango": 645,
      "sorted": 646,
      "per": 647,
      "pend": 648,
      "'],": 649,
      "Ġnot": 650,
      "bar": 651,
      "Ġ6": 652,
      "loat": 653,
      "ĠE": 654,
      "Ġor": 655,
      "loc": 656,
      "ument": 657,
      "icode": 658,
      "Ġdatetime": 659,
      "iv": 660,
      "sv": 661,
      "url": 662,
      "pd": 663,
      "args": 664,
      "other": 665,
      ")))": 666,
      "value": 667,
      "Ġ['": 668,
      "rect": 669,
      "min": 670,
      "(*": 671,
      "si": 672,
      "Ġlen": 673,
      "irst": 674,
      "Is": 675,
      "Ġ{": 676,
      "ract": 677,
      "values": 678,
      "Ġinteg": 679,
      "Ġarg": 680,
      "ble": 681,
      "Ġcharacters": 682,
      "]]": 683,
      "mp": 684,
      "ml": 685,
      "Ġstr": 686,
      "Ġgroup": 687,
      "Ġremove": 688,
      "ign": 689,
      "Ġcolor": 690,
      "cur": 691,
      "Ġspecif": 692,
      "Ġbase": 693,
      "ines": 694,
      "row": 695,
      "groupby": 696,
      "ast": 697,
      "Ġthere": 698,
      "write": 699,
      "art": 700,
      "ition": 701,
      "ach": 702,
      "lass": 703,
      "Find": 704,
      "ĠW": 705,
      "ali": 706,
      "(?": 707,
      "vel": 708,
      "Ġout": 709,
      "Ġrows": 710,
      "Convert": 711,
      "process": 712,
      "[(": 713,
      "].": 714,
      "ep": 715,
      "ead": 716,
      "Ġanother": 717,
      "\"\"\".": 718,
      "Ġnumbers": 719,
      "ix": 720,
      "gging": 721,
      "ost": 722,
      "lose": 723,
      "ill": 724,
      "iter": 725,
      "12": 726,
      "ust": 727,
      "gra": 728,
      "ving": 729,
      "//": 730,
      "Ġtuples": 731,
      "QL": 732,
      "ery": 733,
      "Ġ\"": 734,
      "kinter": 735,
      "ffer": 736,
      "Pandas": 737,
      "ular": 738,
      "Ġint": 739,
      "xtract": 740,
      "text": 741,
      "'}": 742,
      "Ġsplit": 743,
      "open": 744,
      "Ġbe": 745,
      "Ġwithout": 746,
      "count": 747,
      "ht": 748,
      "Ġmatch": 749,
      "Ġspecific": 750,
      "sort": 751,
      "Ġbased": 752,
      "erate": 753,
      "Ġprint": 754,
      "new": 755,
      "ror": 756,
      "Ch": 757,
      "Ġregex": 758,
      "Ġeach": 759,
      "Ġbet": 760,
      "root": 761,
      "sert": 762,
      "line": 763,
      "uti": 764,
      "any": 765,
      "]))": 766,
      "oc": 767,
      "findall": 768,
      "der": 769,
      "ator": 770,
      "replace": 771,
      "ĠH": 772,
      "ans": 773,
      "Ġscript": 774,
      "alse": 775,
      "exec": 776,
      "Ġcheck": 777,
      "main": 778,
      "SO": 779,
      "object": 780,
      "pon": 781,
      "sc": 782,
      "ĠJ": 783,
      "ork": 784,
      "Ġwe": 785,
      "oup": 786,
      "ween": 787,
      "word": 788,
      "ĠG": 789,
      "ĠO": 790,
      "arch": 791,
      "ttp": 792,
      "('\\\\": 793,
      "Ġimage": 794,
      "save": 795,
      "txt": 796,
      "Ġ{'": 797,
      "Ġorder": 798,
      "Ġfirst": 799,
      "tring": 800,
      "Ġzip": 801,
      "Ġread": 802,
      "ale": 803,
      "app": 804,
      "[:,": 805,
      "atter": 806,
      "lic": 807,
      "rix": 808,
      "aries": 809,
      "Ġitems": 810,
      "form": 811,
      "Ġ('": 812,
      "pression": 813,
      "river": 814,
      "fa": 815,
      "hen": 816,
      "Ġbetween": 817,
      "Py": 818,
      "Ġopen": 819,
      "Ġsort": 820,
      "bin": 821,
      "Ġqu": 822,
      "Ġkeys": 823,
      "ample": 824,
      "load": 825,
      "'),": 826,
      "ĠList": 827,
      "ive": 828,
      "gram": 829,
      "dout": 830,
      "Ġ/": 831,
      "ĠR": 832,
      "('\\": 833,
      "Ġsame": 834,
      "ng": 835,
      "lim": 836,
      "bo": 837,
      "ory": 838,
      "rent": 839,
      "Ġchange": 840,
      "Ġyou": 841,
      "Ġargument": 842,
      "nsion": 843,
      "Ġat": 844,
      "from": 845,
      "ick": 846,
      "apply": 847,
      "dir": 848,
      "ule": 849,
      "ree": 850,
      "gen": 851,
      "\"\"\"\"": 852,
      "prehen": 853,
      "ible": 854,
      "type": 855,
      "Ġlabel": 856,
      "ols": 857,
      "parse": 858,
      "Ġwords": 859,
      "Wh": 860,
      "Ġover": 861,
      "prehension": 862,
      "low": 863,
      "column": 864,
      "close": 865,
      "Ġwindow": 866,
      "Ġnew": 867,
      "add": 868,
      "Ġ10": 869,
      "odule": 870,
      "filter": 871,
      "ally": 872,
      "max": 873,
      "ingle": 874,
      "Ġser": 875,
      "Django": 876,
      "ST": 877,
      "[[": 878,
      "numpy": 879,
      "thod": 880,
      "ance": 881,
      "ations": 882,
      "Ġcharacter": 883,
      "ient": 884,
      "verse": 885,
      "Ġexpression": 886,
      "em": 887,
      "json": 888,
      "Ġfloat": 889,
      "tent": 890,
      "Ġloop": 891,
      "Ġdiffer": 892,
      "Ġcomm": 893,
      "orting": 894,
      "Ġmodule": 895,
      "ning": 896,
      "random": 897,
      "Ġsingle": 898,
      "append": 899,
      "utf": 900,
      ")',": 901,
      "ry": 902,
      "zer": 903,
      "Ġsh": 904,
      "Ġmodel": 905,
      "ence": 906,
      "ffic": 907,
      "request": 908,
      "Ġdictionaries": 909,
      "lask": 910,
      "csv": 911,
      "driver": 912,
      "ket": 913,
      "Ġfield": 914,
      "('%": 915,
      "Ġspa": 916,
      "raw": 917,
      "Ġcontain": 918,
      "Ġ**": 919,
      "objects": 920,
      "ĠRe": 921,
      "verting": 922,
      "Ġ:": 923,
      "Ġres": 924,
      "bu": 925,
      "ext": 926,
      "Ġ'.": 927,
      "ĠMatplotlib": 928,
      "20": 929,
      "cation": 930,
      "ear": 931,
      "range": 932,
      "Ġ>": 933,
      "start": 934,
      "encode": 935,
      "Ġself": 936,
      "List": 937,
      "fficient": 938,
      "ated": 939,
      "ful": 940,
      "ld": 941,
      "ant": 942,
      "ell": 943,
      "mension": 944,
      "gular": 945,
      "ique": 946,
      "})": 947,
      "Ġac": 948,
      "Ġpy": 949,
      "Ġinteger": 950,
      "Using": 951,
      "Ġrequest": 952,
      "Ġ<": 953,
      "gend": 954,
      "ters": 955,
      "ption": 956,
      "Ġcomprehension": 957,
      "ĠNone": 958,
      "some": 959,
      "Ġfiles": 960,
      "Ġ8": 961,
      "Ġwithin": 962,
      "ci": 963,
      "Ġcount": 964,
      "Ġdjango": 965,
      "tes": 966,
      "Ġiter": 967,
      "Ġbin": 968,
      "ass": 969,
      "cond": 970,
      "Ġwhen": 971,
      "Ġunicode": 972,
      "day": 973,
      "lu": 974,
      "Ġla": 975,
      "Ġal": 976,
      "pack": 977,
      "Ġdec": 978,
      "Ġpre": 979,
      "Ġup": 980,
      "rib": 981,
      "Ġarrays": 982,
      "Ġ7": 983,
      "ĠX": 984,
      "rop": 985,
      "riter": 986,
      "wh": 987,
      "decode": 988,
      "moving": 989,
      "result": 990,
      "Ġper": 991,
      "Ġreplace": 992,
      "side": 993,
      "ustom": 994,
      "fault": 995,
      "11": 996,
      "://": 997,
      "reating": 998,
      "esc": 999,
      "comp": 1000,
      "http": 1001,
      "Ġare": 1002,
      "ates": 1003,
      "Ġframe": 1004,
      "Ġonly": 1005,
      "ag": 1006,
      "num": 1007,
      "Ġwrite": 1008,
      "Ġrandom": 1009,
      "ponse": 1010,
      "Add": 1011,
      "git": 1012,
      "run": 1013,
      "uct": 1014,
      "Ġpd": 1015,
      "strip": 1016,
      "Ġmatrix": 1017,
      "Ġjson": 1018,
      "Ġoutput": 1019,
      "SON": 1020,
      "ium": 1021,
      "ices": 1022,
      "ssible": 1023,
      "execute": 1024,
      "Ġweb": 1025,
      "Ġcur": 1026,
      "Ġel": 1027,
      "lenium": 1028,
      "False": 1029,
      "Ġnon": 1030,
      "Ġrun": 1031,
      "ook": 1032,
      "ested": 1033,
      "..": 1034,
      ".__": 1035,
      "user": 1036,
      "Ġtable": 1037,
      "Ġmax": 1038,
      "Ġselect": 1039,
      "play": 1040,
      "SE": 1041,
      "tuple": 1042,
      "ong": 1043,
      "Ġ',": 1044,
      "Ġarguments": 1045,
      "gth": 1046,
      "Ġcer": 1047,
      "Ġsum": 1048,
      "()))": 1049,
      "What": 1050,
      "Ġdifferent": 1051,
      "comm": 1052,
      "Ġgen": 1053,
      "lete": 1054,
      "Matplotlib": 1055,
      "ton": 1056,
      "Ġreturn": 1057,
      "us": 1058,
      "init": 1059,
      "ren": 1060,
      "('[": 1061,
      "tic": 1062,
      "ribute": 1063,
      "SQL": 1064,
      "Ġfilter": 1065,
      "imal": 1066,
      "Ġpossible": 1067,
      "+',": 1068,
      "rror": 1069,
      "Ġinput": 1070,
      "Ġimp": 1071,
      "ĠJSON": 1072,
      "Data": 1073,
      "base": 1074,
      "vi": 1075,
      "Ġlines": 1076,
      "ĠTkinter": 1077,
      "ea": 1078,
      "Ġpath": 1079,
      "stack": 1080,
      "rectory": 1081,
      "64": 1082,
      "ty": 1083,
      "ard": 1084,
      "utton": 1085,
      "Ġvariables": 1086,
      "Ġelse": 1087,
      "Com": 1088,
      "ps": 1089,
      "Ġsize": 1090,
      "che": 1091,
      "plication": 1092,
      "Ġcertain": 1093,
      "Di": 1094,
      "ML": 1095,
      "ql": 1096,
      "ont": 1097,
      "Ġinter": 1098,
      "und": 1099,
      "conn": 1100,
      "Ġmethod": 1101,
      "Ġinst": 1102,
      "end": 1103,
      "Ġlog": 1104,
      "po": 1105,
      "Ġclass": 1106,
      "loop": 1107,
      "Ġany": 1108,
      "tools": 1109,
      "keys": 1110,
      "Error": 1111,
      "lat": 1112,
      "port": 1113,
      "idget": 1114,
      "compile": 1115,
      "now": 1116,
      "size": 1117,
      "with": 1118,
      "ĠĠ": 1119,
      "erge": 1120,
      "attr": 1121,
      "Ġdup": 1122,
      "('/": 1123,
      "0000": 1124,
      "Ġlet": 1125,
      "aliz": 1126,
      "dition": 1127,
      "gle": 1128,
      "writer": 1129,
      "Ġbar": 1130,
      "For": 1131,
      "IN": 1132,
      "pandas": 1133,
      "}'.": 1134,
      "logging": 1135,
      "Ġsy": 1136,
      "mensional": 1137,
      "[-": 1138,
      "stdout": 1139,
      "leep": 1140,
      "Ġdis": 1141,
      "ello": 1142,
      "Ġ9": 1143,
      "Ġind": 1144,
      "lob": 1145,
      "Ġgra": 1146,
      "-%": 1147,
      "db": 1148,
      "rl": 1149,
      "shape": 1150,
      "Ġpoint": 1151,
      "ain": 1152,
      "matplotlib": 1153,
      "of": 1154,
      "Ġthis": 1155,
      ":%": 1156,
      "None": 1157,
      "Se": 1158,
      "fter": 1159,
      "sleep": 1160,
      "')]": 1161,
      "Ġtest": 1162,
      "ttribute": 1163,
      "pp": 1164,
      "Ġos": 1165,
      "alc": 1166,
      "Ġsome": 1167,
      "Ġnested": 1168,
      "ous": 1169,
      "rid": 1170,
      "plate": 1171,
      "ild": 1172,
      "ĠPy": 1173,
      "duce": 1174,
      "iven": 1175,
      "attern": 1176,
      "(',": 1177,
      "LE": 1178,
      "Qt": 1179,
      "dum": 1180,
      "work": 1181,
      "stem": 1182,
      "Ġco": 1183,
      "(),": 1184,
      "Ġreverse": 1185,
      "columns": 1186,
      "34": 1187,
      "unc": 1188,
      "utiful": 1189,
      "]])": 1190,
      "ise": 1191,
      "level": 1192,
      "round": 1193,
      "Ġvi": 1194,
      ":-": 1195,
      "ac": 1196,
      "ĠV": 1197,
      "ĠString": 1198,
      "Ġbinary": 1199,
      "Ġlast": 1200,
      "Ġlambda": 1201,
      "orted": 1202,
      "Ġim": 1203,
      "Ġurl": 1204,
      "ĠSe": 1205,
      "Count": 1206,
      "ak": 1207,
      "ten": 1208,
      "ull": 1209,
      "uper": 1210,
      "subprocess": 1211,
      "Ġimport": 1212,
      "+)": 1213,
      "Ġoc": 1214,
      "del": 1215,
      "ask": 1216,
      "Ġextract": 1217,
      "oogle": 1218,
      "resh": 1219,
      "chemy": 1220,
      "png": 1221,
      "Ġafter": 1222,
      "Ġmin": 1223,
      "ice": 1224,
      "Ġintegers": 1225,
      "Ġgiven": 1226,
      "duct": 1227,
      "(\\\\": 1228,
      "][": 1229,
      "ww": 1230,
      "eries": 1231,
      "Ġ'',": 1232,
      "Ġequ": 1233,
      "Ġregular": 1234,
      "alcul": 1235,
      "15": 1236,
      "Ġinside": 1237,
      "red": 1238,
      "Ġsim": 1239,
      "ash": 1240,
      "Ġuser": 1241,
      "Ġcondition": 1242,
      "amp": 1243,
      "mainloop": 1244,
      ")[": 1245,
      ")])": 1246,
      "float": 1247,
      "Ġback": 1248,
      "ĠMy": 1249,
      "Ġobjects": 1250,
      "eautiful": 1251,
      "kw": 1252,
      "ox": 1253,
      "Ġ&": 1254,
      "eric": 1255,
      "ey": 1256,
      "Ġattribute": 1257,
      "mean": 1258,
      "log": 1259,
      "umPy": 1260,
      "tick": 1261,
      "Ġdirectory": 1262,
      "De": 1263,
      "search": 1264,
      "('.": 1265,
      "concat": 1266,
      "Remove": 1267,
      "Ġunique": 1268,
      "ocket": 1269,
      "Sorting": 1270,
      "Ġsubprocess": 1271,
      "Ġcommand": 1272,
      "ite": 1273,
      "lst": 1274,
      "Ġli": 1275,
      "atch": 1276,
      "000": 1277,
      "Ġlength": 1278,
      "):": 1279,
      "Creating": 1280,
      "yn": 1281,
      "Ġcsv": 1282,
      "tit": 1283,
      "ector": 1284,
      "imum": 1285,
      "Ġnames": 1286,
      "Getting": 1287,
      "gh": 1288,
      "Ġcontent": 1289,
      "Converting": 1290,
      "system": 1291,
      "ĠHT": 1292,
      "co": 1293,
      "ses": 1294,
      "dimensional": 1295,
      "Ġhead": 1296,
      "Ġlabels": 1297,
      "DataFrame": 1298,
      "kwargs": 1299,
      "({'": 1300,
      "fy": 1301,
      "Ġcustom": 1302,
      "('{": 1303,
      "Ġsave": 1304,
      "ĠSQL": 1305,
      "AT": 1306,
      "Can": 1307,
      "cv": 1308,
      "drop": 1309,
      "vas": 1310,
      "lice": 1311,
      "arr": 1312,
      "Ġsorted": 1313,
      "Ġmap": 1314,
      "Ġever": 1315,
      "Ġsepar": 1316,
      "cessing": 1317,
      "ĠFlask": 1318,
      "Ġpair": 1319,
      "Finding": 1320,
      "Ġindices": 1321,
      "My": 1322,
      "RE": 1323,
      "SV": 1324,
      "not": 1325,
      "umerate": 1326,
      ":]": 1327,
      "Split": 1328,
      "stamp": 1329,
      "([[": 1330,
      "Ġlogging": 1331,
      "Al": 1332,
      "Plot": 1333,
      "the": 1334,
      "Ġtr": 1335,
      "zero": 1336,
      "reshape": 1337,
      "16": 1338,
      "RL": 1339,
      "String": 1340,
      "so": 1341,
      "tk": 1342,
      "thing": 1343,
      "Ġ'%": 1344,
      "Ġmore": 1345,
      "abc": 1346,
      "Ġsecond": 1347,
      "ĠUn": 1348,
      "savefig": 1349,
      "'t": 1350,
      "=['": 1351,
      "Print": 1352,
      "Set": 1353,
      "ftime": 1354,
      "ically": 1355,
      "\"\".": 1356,
      "match": 1357,
      "Read": 1358,
      "osition": 1359,
      "ĠMulti": 1360,
      "Ġprogram": 1361,
      "Ġformatting": 1362,
      "\"\"\"\"\"\".": 1363,
      ".*": 1364,
      "Key": 1365,
      "Par": 1366,
      "xml": 1367,
      "},": 1368,
      "ĠQ": 1369,
      "Ġdtype": 1370,
      "Ġ'-": 1371,
      "Ġ'\\": 1372,
      "Removing": 1373,
      "ĠCSV": 1374,
      "filename": 1375,
      "Ġdefault": 1376,
      "Ġlegend": 1377,
      "cursor": 1378,
      "lines": 1379,
      "Ġ.": 1380,
      "Ġinsert": 1381,
      "own": 1382,
      "anging": 1383,
      "Ġparame": 1384,
      "cii": 1385,
      "soup": 1386,
      "vent": 1387,
      "Ġ!": 1388,
      "Ġpass": 1389,
      "als": 1390,
      "Ġdoes": 1391,
      "Ġhex": 1392,
      "query": 1393,
      "lower": 1394,
      "where": 1395,
      "Ġgraph": 1396,
      "ĠDi": 1397,
      "ssign": 1398,
      "Ġquery": 1399,
      "Ġcontains": 1400,
      "Ġcurrent": 1401,
      "Ġgenerate": 1402,
      "ĠMySQL": 1403,
      "Ġ!=": 1404,
      "Res": 1405,
      "TP": 1406,
      "iti": 1407,
      "ls": 1408,
      "rary": 1409,
      "uth": 1410,
      "ink": 1411,
      "inst": 1412,
      "ark": 1413,
      "strftime": 1414,
      "Ġ[[": 1415,
      "ssage": 1416,
      "mail": 1417,
      "Ġend": 1418,
      "licate": 1419,
      "escape": 1420,
      "tri": 1421,
      "table": 1422,
      "Ġefficient": 1423,
      "ĠNumPy": 1424,
      "Index": 1425,
      "Ġpoints": 1426,
      "04": 1427,
      "class": 1428,
      "ial": 1429,
      "ote": 1430,
      "year": 1431,
      "}\"\"\".": 1432,
      "input": 1433,
      "ref": 1434,
      "('^": 1435,
      "Ġthan": 1436,
      "]),": 1437,
      "direct": 1438,
      "Ġoccur": 1439,
      ":\\\\": 1440,
      "Extract": 1441,
      "are": 1442,
      "head": 1443,
      "image": 1444,
      "ative": 1445,
      "reset": 1446,
      "select": 1447,
      "struct": 1448,
      "gger": 1449,
      "Dict": 1450,
      "99": 1451,
      "Numpy": 1452,
      "RO": 1453,
      "element": 1454,
      "Ġmo": 1455,
      "riting": 1456,
      "Ġenumerate": 1457,
      "Ġapplication": 1458,
      "Col": 1459,
      "Pro": 1460,
      "cy": 1461,
      "call": 1462,
      "cod": 1463,
      "Ġ_": 1464,
      "lean": 1465,
      "Ġfig": 1466,
      "('-": 1467,
      "Ġvector": 1468,
      "ĠIn": 1469,
      "plots": 1470,
      "ity": 1471,
      "Ġscatter": 1472,
      "Ġspace": 1473,
      "ynam": 1474,
      "01": 1475,
      "bb": 1476,
      "your": 1477,
      "Ġcode": 1478,
      ")),": 1479,
      "output": 1480,
      "ĠNumpy": 1481,
      "indows": 1482,
      "Ġgroupby": 1483,
      "Check": 1484,
      "dumps": 1485,
      "DE": 1486,
      "ft": 1487,
      "Ġtype": 1488,
      "orn": 1489,
      "les": 1490,
      "licat": 1491,
      "getter": 1492,
      "pace": 1493,
      "parser": 1494,
      "Ġexist": 1495,
      "trans": 1496,
      "html": 1497,
      "Ġresult": 1498,
      "32": 1499,
      "Ap": 1500,
      "Name": 1501,
      "Soup": 1502,
      "fill": 1503,
      "ne": 1504,
      "Ġloc": 1505,
      "color": 1506,
      "commit": 1507,
      ")?": 1508,
      "error": 1509,
      "erator": 1510,
      "Ġcalcul": 1511,
      "Ġexec": 1512,
      "ĠBeautiful": 1513,
      "Ġevery": 1514,
      "(\"": 1515,
      "ts": 1516,
      "Ġtick": 1517,
      "Ġfol": 1518,
      "reen": 1519,
      "Ġwidget": 1520,
      "Ġ12": 1521,
      "quen": 1522,
      "idth": 1523,
      "Ġprocess": 1524,
      "Ġproper": 1525,
      "Create": 1526,
      "ms": 1527,
      "super": 1528,
      "ĠTrue": 1529,
      "Ġtkinter": 1530,
      "ress": 1531,
      "()),": 1532,
      "Ġbu": 1533,
      "ich": 1534,
      "Ġcont": 1535,
      "pty": 1536,
      "nder": 1537,
      "25": 1538,
      "Field": 1539,
      "Sort": 1540,
      "Th": 1541,
      "[['": 1542,
      "func": 1543,
      "()]": 1544,
      "ascii": 1545,
      "Ġtem": 1546,
      "astype": 1547,
      "licates": 1548,
      "Lo": 1549,
      "game": 1550,
      "na": 1551,
      "Ġcall": 1552,
      "keep": 1553,
      "ctionary": 1554,
      "modu": 1555,
      "ĠDataframe": 1556,
      "delta": 1557,
      "Alchemy": 1558,
      "(-": 1559,
      "OST": 1560,
      "dis": 1561,
      "ght": 1562,
      "ide": 1563,
      "uto": 1564,
      "sent": 1565,
      "('(?": 1566,
      "Ġbut": 1567,
      "Ġ[(": 1568,
      "Ġsend": 1569,
      "img": 1570,
      "figure": 1571,
      "ĠUT": 1572,
      "Ġaccess": 1573,
      "clu": 1574,
      "Ġz": 1575,
      "Ġcor": 1576,
      "session": 1577,
      "']['": 1578,
      "cho": 1579,
      "Ġdatabase": 1580,
      "Ġapp": 1581,
      "Ġduplicate": 1582,
      "AL": 1583,
      "Date": 1584,
      "cli": 1585,
      "gn": 1586,
      "hex": 1587,
      "Ġrepe": 1588,
      "Ġdigit": 1589,
      "Ġplots": 1590,
      "itemgetter": 1591,
      "itertools": 1592,
      "alize": 1593,
      "coding": 1594,
      "aa": 1595,
      "nan": 1596,
      "pect": 1597,
      "ĠY": 1598,
      "inu": 1599,
      "Ġfill": 1600,
      "Ġwork": 1601,
      "Ġid": 1602,
      "Ġem": 1603,
      "Ġoccurren": 1604,
      "ID": 1605,
      "Multi": 1606,
      "]*": 1607,
      "field": 1608,
      "ik": 1609,
      "ptime": 1610,
      "Ġ|": 1611,
      "arange": 1612,
      "rou": 1613,
      "ded": 1614,
      "ound": 1615,
      "its": 1616,
      "ined": 1617,
      "ight": 1618,
      "exit": 1619,
      "Ġstdout": 1620,
      "[::-": 1621,
      "Ġspaces": 1622,
      "ĠUnicode": 1623,
      "=[": 1624,
      "Model": 1625,
      "do": 1626,
      "var": 1627,
      "')[": 1628,
      "\"\"\"{": 1629,
      "Ġstate": 1630,
      "Ġparse": 1631,
      "Ġseries": 1632,
      "ĠSelenium": 1633,
      "din": 1634,
      "ek": 1635,
      "fer": 1636,
      "sql": 1637,
      "vir": 1638,
      "Ġkeep": 1639,
      "Ġpla": 1640,
      "arge": 1641,
      "sec": 1642,
      "roll": 1643,
      "update": 1644,
      "Ġ100": 1645,
      "]).": 1646,
      "div": 1647,
      "ĠCon": 1648,
      "Ġwhile": 1649,
      "ĠURL": 1650,
      "ĠEx": 1651,
      "instance": 1652,
      "Fast": 1653,
      "PI": 1654,
      "aN": 1655,
      "ait": 1656,
      "orld": 1657,
      "reg": 1658,
      "strptime": 1659,
      "])]": 1660,
      "Ġhave": 1661,
      "mylist": 1662,
      "Ġwhere": 1663,
      "Ġwhich": 1664,
      "Ġdelim": 1665,
      "rowser": 1666,
      "Ġalph": 1667,
      "Ġletters": 1668,
      "Format": 1669,
      "/%": 1670,
      "Efficient": 1671,
      "ake": 1672,
      "fo": 1673,
      "mut": 1674,
      "rder": 1675,
      "Ġpattern": 1676,
      "Ġshow": 1677,
      "Ġmark": 1678,
      "enti": 1679,
      "unct": 1680,
      "__(": 1681,
      "box": 1682,
      "Ġempty": 1683,
      "rough": 1684,
      "reak": 1685,
      "Ġcell": 1686,
      "']]": 1687,
      "ical": 1688,
      "itle": 1689,
      "convert": 1690,
      "Ġmodels": 1691,
      "bug": 1692,
      "Ġsimple": 1693,
      "02": 1694,
      "obj": 1695,
      "}}": 1696,
      "Ġtag": 1697,
      "']).": 1698,
      "ĠCol": 1699,
      "Ġsubstring": 1700,
      "urllib": 1701,
      "alid": 1702,
      "zeros": 1703,
      "Ġrequests": 1704,
      "Ġtemplate": 1705,
      "33": 1706,
      "Best": 1707,
      "ET": 1708,
      "onth": 1709,
      "Ġad": 1710,
      "section": 1711,
      "Ġother": 1712,
      "alue": 1713,
      "digit": 1714,
      "Ġapply": 1715,
      "title": 1716,
      "Ġtrans": 1717,
      "ĠBeautifulSoup": 1718,
      "Ġstatement": 1719,
      ")],": 1720,
      "St": 1721,
      "Un": 1722,
      "cing": 1723,
      "ie": 1724,
      "Ġassign": 1725,
      "Regex": 1726,
      "response": 1727,
      "site": 1728,
      "'})": 1729,
      "TE": 1730,
      "pol": 1731,
      "tra": 1732,
      "Ġter": 1733,
      "Ġthrough": 1734,
      "andl": 1735,
      "pare": 1736,
      "plement": 1737,
      "Ġmatching": 1738,
      "Sum": 1739,
      "av": 1740,
      "ject": 1741,
      "(''.": 1742,
      "Ġslice": 1743,
      "quence": 1744,
      "Ġbytes": 1745,
      "Ġstart": 1746,
      "[:-": 1747,
      "Ġfields": 1748,
      "Ġdecimal": 1749,
      "Ġdisplay": 1750,
      "viron": 1751,
      "Ġdelimiter": 1752,
      "CT": 1753,
      "az": 1754,
      "bine": 1755,
      "cket": 1756,
      "hello": 1757,
      "ogram": 1758,
      "stat": 1759,
      "Ġposition": 1760,
      "anvas": 1761,
      "Ġ'\\\\": 1762,
      "lists": 1763,
      "ateg": 1764,
      "Ġ20": 1765,
      "Ġlst": 1766,
      "ĠCh": 1767,
      "Ġmessage": 1768,
      "Ġstruct": 1769,
      "$',": 1770,
      "100": 1771,
      "56": 1772,
      "All": 1773,
      "User": 1774,
      "cord": 1775,
      "Ġjoin": 1776,
      "lection": 1777,
      "Ġexce": 1778,
      "tag": 1779,
      "utive": 1780,
      "Select": 1781,
      "Ġvia": 1782,
      "ĠHTML": 1783,
      "\")": 1784,
      "Time": 1785,
      "ber": 1786,
      "book": 1787,
      "ok": 1788,
      "rray": 1789,
      "tf": 1790,
      "uff": 1791,
      "zone": 1792,
      "Pythonic": 1793,
      "')))": 1794,
      "nter": 1795,
      "ould": 1796,
      "top": 1797,
      "ĠNaN": 1798,
      "Ġunit": 1799,
      "Ġdelete": 1800,
      "ĠApp": 1801,
      "Ġits": 1802,
      "ivale": 1803,
      "connect": 1804,
      "Reading": 1805,
      "secutive": 1806,
      "ivalent": 1807,
      "Ex": 1808,
      "Series": 1809,
      "create": 1810,
      "swith": 1811,
      "Ġsign": 1812,
      "()[": 1813,
      "enate": 1814,
      "Ġno": 1815,
      "ĠImage": 1816,
      "Ġfilename": 1817,
      "Ġlarge": 1818,
      "istogram": 1819,
      "ĠFalse": 1820,
      "view": 1821,
      "Plotting": 1822,
      "SC": 1823,
      "]',": 1824,
      "bit": 1825,
      "dt": 1826,
      "sp": 1827,
      "('(": 1828,
      "('<": 1829,
      "lock": 1830,
      "Ġbutton": 1831,
      ")).": 1832,
      "etwork": 1833,
      "Ġsearch": 1834,
      "Ġbyte": 1835,
      "park": 1836,
      "ĠCom": 1837,
      "words": 1838,
      "ngine": 1839,
      "writerow": 1840,
      "Ġcalculate": 1841,
      "30": 1842,
      "eval": 1843,
      "Ġ\"\"\".": 1844,
      "Ġerror": 1845,
      "Ġinplace": 1846,
      "lite": 1847,
      "Ġday": 1848,
      "Ġoper": 1849,
      "Ġform": 1850,
      "Ġboo": 1851,
      "Ġreduce": 1852,
      "version": 1853,
      "verage": 1854,
      "dify": 1855,
      "Ġhas": 1856,
      "Replace": 1857,
      "Ġsublist": 1858,
      "Ġlevel": 1859,
      "ĠWindows": 1860,
      "loads": 1861,
      "Ġshell": 1862,
      "19": 1863,
      "Ac": 1864,
      "Group": 1865,
      "Hello": 1866,
      "IL": 1867,
      "Popen": 1868,
      "Sh": 1869,
      "Writing": 1870,
      "[^": 1871,
      "cum": 1872,
      "ding": 1873,
      "iloc": 1874,
      "merge": 1875,
      "qlite": 1876,
      "yle": 1877,
      "Ġlib": 1878,
      "Ġ__": 1879,
      "Ġent": 1880,
      "inal": 1881,
      "Ġcli": 1882,
      "Ġ'/": 1883,
      "andle": 1884,
      "ked": 1885,
      "ixed": 1886,
      "binations": 1887,
      "Ġpairs": 1888,
      "14": 1889,
      "=(": 1890,
      "]+": 1891,
      "first": 1892,
      "pes": 1893,
      "ins": 1894,
      "lear": 1895,
      "Ġfont": 1896,
      "Ġdraw": 1897,
      "Ġ''.": 1898,
      "alle": 1899,
      "ouble": 1900,
      "abs": 1901,
      "content": 1902,
      "Ġsubplots": 1903,
      "Ġencoding": 1904,
      "Ġserver": 1905,
      "Ġupdate": 1906,
      "Adding": 1907,
      "www": 1908,
      "Ġheaders": 1909,
      "78": 1910,
      "AB": 1911,
      "IG": 1912,
      "II": 1913,
      "eet": 1914,
      "host": 1915,
      "{{": 1916,
      "insert": 1917,
      "tect": 1918,
      "Ġglob": 1919,
      "import": 1920,
      "Ġcomma": 1921,
      "ĠEngine": 1922,
      "dirname": 1923,
      "ĠXML": 1924,
      "Ġmaximum": 1925,
      "Ġinstead": 1926,
      "Ġletter": 1927,
      "Ġparameters": 1928,
      "03": 1929,
      "06": 1930,
      "::": 1931,
      "CV": 1932,
      "aving": 1933,
      "grid": 1934,
      "mt": 1935,
      "info": 1936,
      "ank": 1937,
      "Ġ'')": 1938,
      "Ġoption": 1939,
      "Ġne": 1940,
      ").__": 1941,
      "paring": 1942,
      "param": 1943,
      "Ġchart": 1944,
      "rows": 1945,
      "lush": 1946,
      "Ġfigure": 1947,
      "Ġtermin": 1948,
      "OR": 1949,
      "PE": 1950,
      "cm": 1951,
      "ib": 1952,
      "post": 1953,
      "sample": 1954,
      "zA": 1955,
      "Ġdynam": 1956,
      "assing": 1957,
      "))]": 1958,
      "right": 1959,
      "Ġselenium": 1960,
      "present": 1961,
      "product": 1962,
      "123": 1963,
      "Ġitertools": 1964,
      "sole": 1965,
      "ĠUTF": 1966,
      "IO": 1967,
      "UT": 1968,
      "function": 1969,
      "glob": 1970,
      "ual": 1971,
      "default": 1972,
      "ution": 1973,
      "timestamp": 1974,
      "igh": 1975,
      "example": 1976,
      "Ġcontaining": 1977,
      "clude": 1978,
      "back": 1979,
      "cent": 1980,
      "ground": 1981,
      "ken": 1982,
      "nten": 1983,
      "socket": 1984,
      "Ġam": 1985,
      "orm": 1986,
      "leg": 1987,
      "reduce": 1988,
      "arning": 1989,
      "raise": 1990,
      "Ġrel": 1991,
      "Ġ16": 1992,
      "issing": 1993,
      "Ġgroups": 1994,
      "ticks": 1995,
      "Ġdigits": 1996,
      "mutations": 1997,
      "Ġboolean": 1998,
      "55": 1999,
      "pi": 2000,
      "pattern": 2001,
      "rand": 2002,
      "use": 2003,
      "wise": 2004,
      "xc": 2005,
      "second": 2006,
      "delete": 2007,
      "Ġbox": 2008,
      "Ġpythonic": 2009,
      "term": 2010,
      "unpack": 2011,
      "ĠArray": 2012,
      "Ġproduct": 2013,
      "Ġpart": 2014,
      "catter": 2015,
      "Ġcolors": 2016,
      "script": 2017,
      "LECT": 2018,
      "Ġimplement": 2019,
      "Ġcontents": 2020,
      "Response": 2021,
      "Ġfolder": 2022,
      "andler": 2023,
      "(__": 2024,
      "66": 2025,
      "ME": 2026,
      "TK": 2027,
      "cre": 2028,
      "eve": 2029,
      "flush": 2030,
      "ipy": 2031,
      "ied": 2032,
      "xe": 2033,
      "xy": 2034,
      "legend": 2035,
      "Ġfoo": 2036,
      "Ġcap": 2037,
      "Ġsocket": 2038,
      "Ġmany": 2039,
      "Ġbest": 2040,
      "tern": 2041,
      "lay": 2042,
      "char": 2043,
      "unique": 2044,
      "tings": 2045,
      "([(": 2046,
      "fore": 2047,
      "ody": 2048,
      "licing": 2049,
      "point": 2050,
      "Ġexists": 2051,
      "ĠColumn": 2052,
      ")\\\\": 2053,
      "={'": 2054,
      "File": 2055,
      "Gen": 2056,
      "draw": 2057,
      "ools": 2058,
      "Ġ\\": 2059,
      "Ġdates": 2060,
      "Ġmost": 2061,
      "Ġthread": 2062,
      "Ġbreak": 2063,
      "Ġsequence": 2064,
      "cont": 2065,
      "Ġappend": 2066,
      "1234": 2067,
      "ending": 2068,
      "Ġduplicates": 2069,
      "module": 2070,
      "Test": 2071,
      "Type": 2072,
      "eb": 2073,
      "no": 2074,
      "non": 2075,
      "pg": 2076,
      "xpath": 2077,
      "Ġzero": 2078,
      "Ġ')": 2079,
      "Ġsorting": 2080,
      "def": 2081,
      "Ġrender": 2082,
      "isdigit": 2083,
      "timedelta": 2084,
      "server": 2085,
      "Ġhistogram": 2086,
      "config": 2087,
      "idx": 2088,
      "argv": 2089,
      "Ġaxes": 2090,
      "Changing": 2091,
      "Ġiterate": 2092,
      "Ġrunning": 2093,
      "SER": 2094,
      "Ġcopy": 2095,
      "ĠSQLAlchemy": 2096,
      "Ġmodify": 2097,
      "choice": 2098,
      "unctools": 2099,
      "SCII": 2100,
      "22": 2101,
      "CO": 2102,
      "Dec": 2103,
      "To": 2104,
      "[('": 2105,
      "case": 2106,
      "google": 2107,
      "option": 2108,
      "rc": 2109,
      "tml": 2110,
      "ures": 2111,
      "xaxis": 2112,
      "ze": 2113,
      "Ġtitle": 2114,
      "send": 2115,
      "teral": 2116,
      "upper": 2117,
      "tolist": 2118,
      "aborn": 2119,
      "Ġsubset": 2120,
      "ource": 2121,
      "Ġfloats": 2122,
      "Ġequivalent": 2123,
      "Splitting": 2124,
      "13": 2125,
      "88": 2126,
      "baz": 2127,
      "canvas": 2128,
      "eat": 2129,
      "gine": 2130,
      "vo": 2131,
      "ven": 2132,
      "|\\\\": 2133,
      "unicode": 2134,
      "pyplot": 2135,
      "Ġnumeric": 2136,
      "Ġconsole": 2137,
      "ordin": 2138,
      "ĠSeries": 2139,
      "Ġstat": 2140,
      "Ġscale": 2141,
      "tty": 2142,
      "Ġnamed": 2143,
      "Ġmean": 2144,
      "ĠOpen": 2145,
      "Ġwindows": 2146,
      "Form": 2147,
      "Ġview": 2148,
      "rdered": 2149,
      "Ġterminal": 2150,
      "legant": 2151,
      "AD": 2152,
      "HE": 2153,
      "jor": 2154,
      "nect": 2155,
      "pand": 2156,
      "Ġ`": 2157,
      "rep": 2158,
      "Ġtop": 2159,
      "method": 2160,
      "Ġwidth": 2161,
      "Ġsqlite": 2162,
      "tend": 2163,
      "Ġman": 2164,
      "Ġmerge": 2165,
      "unstack": 2166,
      "page": 2167,
      "Ġyear": 2168,
      "Ġexample": 2169,
      "ĠFind": 2170,
      "Ġdataframes": 2171,
      "Ġfunctions": 2172,
      "labels": 2173,
      "teger": 2174,
      "ĠGoogle": 2175,
      "Ġordered": 2176,
      "ĠĠĠ": 2177,
      "Ġsys": 2178,
      "Ġurllib": 2179,
      "ĠMultiIndex": 2180,
      "Extracting": 2181,
      "Ġoccurrences": 2182,
      "NT": 2183,
      "]['": 2184,
      "ail": 2185,
      "bla": 2186,
      "ja": 2187,
      "multi": 2188,
      "sers": 2189,
      "win": 2190,
      "Ġzeros": 2191,
      "Ġab": 2192,
      "Ġfunctools": 2193,
      "Ġcv": 2194,
      "Ġdown": 2195,
      "('(\\\\": 2196,
      "Ġver": 2197,
      "Ġxml": 2198,
      "Ġ11": 2199,
      "\\\\.": 2200,
      "elp": 2201,
      "template": 2202,
      "ersion": 2203,
      "Ġsenten": 2204,
      "ĠPOST": 2205,
      "Ġhtml": 2206,
      "actor": 2207,
      "operator": 2208,
      "Ġdef": 2209,
      "ify": 2210,
      "Ġpage": 2211,
      "Ġpartic": 2212,
      "Ġ<=": 2213,
      "Ġinstance": 2214,
      "ĠHTTP": 2215,
      "rderedDict": 2216,
      "Ġparticular": 2217,
      ")')": 2218,
      ".')": 2219,
      ":])": 2220,
      "LL": 2221,
      "Ret": 2222,
      "django": 2223,
      "home": 2224,
      "model": 2225,
      "next": 2226,
      "og": 2227,
      "pdf": 2228,
      "pass": 2229,
      "xb": 2230,
      "Ġtra": 2231,
      "regex": 2232,
      "requen": 2233,
      "alph": 2234,
      "ravel": 2235,
      "environ": 2236,
      "Ġnth": 2237,
      "veral": 2238,
      "cel": 2239,
      "chain": 2240,
      "Ġseveral": 2241,
      "contain": 2242,
      "imshow": 2243,
      "ĠCount": 2244,
      "argument": 2245,
      "Ġdicts": 2246,
      "Ġmylist": 2247,
      "ĠElement": 2248,
      "Ġargparse": 2249,
      "Ġcommon": 2250,
      "SELECT": 2251,
      "Ġlike": 2252,
      "headers": 2253,
      "ROM": 2254,
      "Ġexecute": 2255,
      "ference": 2256,
      "ckets": 2257,
      "ordinates": 2258,
      "(('": 2259,
      "._": 2260,
      "24": 2261,
      "80": 2262,
      "=\"": 2263,
      "Sc": 2264,
      "Sub": 2265,
      "br": 2266,
      "doc": 2267,
      "fix": 2268,
      "two": 2269,
      "Ġro": 2270,
      "stdin": 2271,
      "Ġclose": 2272,
      "sed": 2273,
      "')['": 2274,
      "ntax": 2275,
      "']))": 2276,
      "check": 2277,
      "today": 2278,
      "Ġconsecutive": 2279,
      "Ġlxml": 2280,
      "ĠPIL": 2281,
      "qui": 2282,
      "qual": 2283,
      "ĠFile": 2284,
      "ĠFROM": 2285,
      "processing": 2286,
      "Ġpack": 2287,
      "Ġtimestamp": 2288,
      "ĠHttp": 2289,
      "startswith": 2290,
      "days": 2291,
      "Ġperform": 2292,
      "('[^": 2293,
      "Ġsomething": 2294,
      "Ġheader": 2295,
      ".*?": 2296,
      "trieve": 2297,
      "termine": 2298,
      "**": 2299,
      "]+',": 2300,
      "fic": 2301,
      "io": 2302,
      "ier": 2303,
      "ling": 2304,
      "null": 2305,
      "ud": 2306,
      "{}": 2307,
      "style": 2308,
      "remove": 2309,
      "gest": 2310,
      "debug": 2311,
      "Ġbo": 2312,
      "assert": 2313,
      "Ġed": 2314,
      "Ġemail": 2315,
      "Ġrepresent": 2316,
      "ĠDate": 2317,
      "([^": 2318,
      "major": 2319,
      "Ġmultidimensional": 2320,
      "Ġcolorbar": 2321,
      "Counter": 2322,
      "copy": 2323,
      "Ġparameter": 2324,
      "Fastest": 2325,
      "Ġlibrary": 2326,
      "05": 2327,
      "BU": 2328,
      "Jo": 2329,
      "Le": 2330,
      "cle": 2331,
      "gin": 2332,
      "sign": 2333,
      "using": 2334,
      "vis": 2335,
      "rel": 2336,
      "ensor": 2337,
      "Ġbl": 2338,
      "ries": 2339,
      "isnan": 2340,
      "chr": 2341,
      "getattr": 2342,
      "Ġarbit": 2343,
      "__)": 2344,
      "placing": 2345,
      "Ġwho": 2346,
      "ĠText": 2347,
      "Ġseparate": 2348,
      "Ġefficiently": 2349,
      "transform": 2350,
      "Ġticks": 2351,
      "display": 2352,
      "ĠHttpResponse": 2353,
      "!')": 2354,
      "17": 2355,
      "DF": 2356,
      "dot": 2357,
      "dmin": 2358,
      "ns": 2359,
      "arget": 2360,
      "Ġwould": 2361,
      "ross": 2362,
      "rapy": 2363,
      "dest": 2364,
      "ties": 2365,
      "Ġbra": 2366,
      "Ġutf": 2367,
      "'][": 2368,
      "ulate": 2369,
      "pygame": 2370,
      "tostring": 2371,
      "parent": 2372,
      "etch": 2373,
      "__.": 2374,
      "Ġhandle": 2375,
      "ird": 2376,
      "Ġload": 2377,
      "press": 2378,
      "Ġstore": 2379,
      "findAll": 2380,
      "Ġencode": 2381,
      "(?:": 2382,
      "bool": 2383,
      "Ġwebdriver": 2384,
      "Ġminimum": 2385,
      "tition": 2386,
      "fillna": 2387,
      "Ġlocal": 2388,
      "inuous": 2389,
      "iko": 2390,
      "Ġstructure": 2391,
      "requency": 2392,
      "\",": 2393,
      ")}": 2394,
      "*',": 2395,
      "28": 2396,
      "AR": 2397,
      "Call": 2398,
      "Class": 2399,
      "ES": 2400,
      "Foo": 2401,
      "Most": 2402,
      "Window": 2403,
      "body": 2404,
      "lt": 2405,
      "month": 2406,
      "tree": 2407,
      "ui": 2408,
      "variable": 2409,
      "window": 2410,
      "wait": 2411,
      "ream": 2412,
      "Ġdouble": 2413,
      "logger": 2414,
      "asic": 2415,
      "Ġremoving": 2416,
      "old": 2417,
      "Ġconnect": 2418,
      "Ġgrid": 2419,
      "imple": 2420,
      "Ġcombinations": 2421,
      "Ġscreen": 2422,
      "lash": 2423,
      "Ġknow": 2424,
      "Ġparent": 2425,
      "graph": 2426,
      "counts": 2427,
      "Change": 2428,
      "util": 2429,
      "Ġreading": 2430,
      "Ġgenerator": 2431,
      "Comparing": 2432,
      "Ġequal": 2433,
      "Ġbackground": 2434,
      "Printing": 2435,
      "Parsing": 2436,
      "ĠDictionary": 2437,
      "DEBU": 2438,
      "Append": 2439,
      "+)',": 2440,
      "23": 2441,
      "Filter": 2442,
      "GB": 2443,
      "Pa": 2444,
      "Tree": 2445,
      "]')": 2446,
      "af": 2447,
      "scatter": 2448,
      "wx": 2449,
      "xlabel": 2450,
      "ĠGet": 2451,
      "inja": 2452,
      "store": 2453,
      "Ġ'<": 2454,
      "Ġwx": 2455,
      "Ġign": 2456,
      "Ġnext": 2457,
      "Ġthem": 2458,
      "ĠIs": 2459,
      "unk": 2460,
      "admin": 2461,
      "Ġdoc": 2462,
      "Ġlong": 2463,
      "names": 2464,
      "quote": 2465,
      "length": 2466,
      "idual": 2467,
      "ĠMat": 2468,
      "Ġcomp": 2469,
      "Ġwhe": 2470,
      "Ġtimezone": 2471,
      "Ġspecial": 2472,
      "Ġbegin": 2473,
      "bining": 2474,
      "board": 2475,
      "Ġpermutations": 2476,
      "Ġcoordinates": 2477,
      "Ġseparator": 2478,
      "Ġcontour": 2479,
      "Logger": 2480,
      "Ġpackage": 2481,
      "Ġarbitrary": 2482,
      "({": 2483,
      "/')": 2484,
      "37": 2485,
      "44": 2486,
      ">',": 2487,
      "Dis": 2488,
      "Inter": 2489,
      "cc": 2490,
      "ites": 2491,
      "rstrip": 2492,
      "tmp": 2493,
      "width": 2494,
      "erry": 2495,
      "alchemy": 2496,
      "lopen": 2497,
      "Ġoff": 2498,
      "Ġthen": 2499,
      "tial": 2500,
      "Ġversion": 2501,
      "Ġretrieve": 2502,
      "lag": 2503,
      "omain": 2504,
      "Ġdimension": 2505,
      "change": 2506,
      "Ġconcat": 2507,
      "ilt": 2508,
      "ott": 2509,
      "myList": 2510,
      "ipe": 2511,
      "Ġlook": 2512,
      "local": 2513,
      "locale": 2514,
      "ivot": 2515,
      "Ġargs": 2516,
      "(?=": 2517,
      "face": 2518,
      "ickle": 2519,
      "Why": 2520,
      "tical": 2521,
      "Ġattributes": 2522,
      "Ġdoesn": 2523,
      "Ġgraphs": 2524,
      "Ġbuild": 2525,
      "Ġexception": 2526,
      "Ġwhether": 2527,
      "'%": 2528,
      "ND": 2529,
      "OT": 2530,
      "Text": 2531,
      "Value": 2532,
      "bl": 2533,
      "flow": 2534,
      "gre": 2535,
      "jpg": 2536,
      "link": 2537,
      "ping": 2538,
      "Ġra": 2539,
      "Ġescape": 2540,
      "Ġauto": 2541,
      "this": 2542,
      "Ġindiv": 2543,
      "left": 2544,
      "Ġfull": 2545,
      "Ġph": 2546,
      "Ġsuper": 2547,
      "Ġnetwork": 2548,
      "dec": 2549,
      "Ġtheir": 2550,
      "last": 2551,
      "urlopen": 2552,
      "unic": 2553,
      "Regular": 2554,
      "\"\"\",": 2555,
      "Ġcompare": 2556,
      "Ġtimes": 2557,
      "ĠWeb": 2558,
      "scale": 2559,
      "ĠRequest": 2560,
      "Ġpretty": 2561,
      "results": 2562,
      "ookies": 2563,
      "latten": 2564,
      "Ġvectors": 2565,
      "Ġproperly": 2566,
      "Ġalphab": 2567,
      "Ġsentence": 2568,
      "Level": 2569,
      "08": 2570,
      "200": 2571,
      "=',": 2572,
      "HT": 2573,
      "Po": 2574,
      "Run": 2575,
      "]],": 2576,
      "dup": 2577,
      "her": 2578,
      "jk": 2579,
      "mask": 2580,
      "tal": 2581,
      "ture": 2582,
      "vice": 2583,
      "xa": 2584,
      "xx": 2585,
      "Ġroot": 2586,
      "Ġraw": 2587,
      "ĠKey": 2588,
      "Ġaverage": 2589,
      "orma": 2590,
      "roy": 2591,
      "rome": 2592,
      "Ġbig": 2593,
      "Ġvar": 2594,
      "Ġredirect": 2595,
      "ments": 2596,
      "series": 2597,
      "mydict": 2598,
      "ĠModel": 2599,
      "ister": 2600,
      "[:]": 2601,
      "Ġdetect": 2602,
      "formatter": 2603,
      "cator": 2604,
      "Ġ{}": 2605,
      "derr": 2606,
      "pping": 2607,
      "ĠValue": 2608,
      "notate": 2609,
      "('(?<": 2610,
      "inux": 2611,
      "ategory": 2612,
      "uffle": 2613,
      "Accessing": 2614,
      "Ġentries": 2615,
      "cmd": 2616,
      "signal": 2617,
      "destroy": 2618,
      "DEBUG": 2619,
      "Ġindividual": 2620,
      "ormali": 2621,
      ":.": 2622,
      "Flask": 2623,
      "]}": 2624,
      "rb": 2625,
      "sw": 2626,
      "uery": 2627,
      "xd": 2628,
      "}',": 2629,
      "Ġinclude": 2630,
      "let": 2631,
      "ower": 2632,
      "Ġcreating": 2633,
      "Ġdrop": 2634,
      "Ġpol": 2635,
      "separ": 2636,
      "(':": 2637,
      "rol": 2638,
      "()).": 2639,
      "getLogger": 2640,
      "utom": 2641,
      "Ġchanging": 2642,
      "Ġyour": 2643,
      "__(*": 2644,
      "Ġhigh": 2645,
      "ift": 2646,
      "Ġindexes": 2647,
      "Insert": 2648,
      "...": 2649,
      "latin": 2650,
      "ticklabels": 2651,
      "Setting": 2652,
      "nection": 2653,
      "click": 2654,
      "client": 2655,
      "PIPE": 2656,
      "Generate": 2657,
      "contains": 2658,
      "Ġbrackets": 2659,
      "</": 2660,
      "Button": 2661,
      "ER": 2662,
      "Iter": 2663,
      "Open": 2664,
      "Passing": 2665,
      "]:": 2666,
      "agg": 2667,
      "bc": 2668,
      "browser": 2669,
      "fit": 2670,
      "ili": 2671,
      "iod": 2672,
      "pop": 2673,
      "position": 2674,
      "tz": 2675,
      "ws": 2676,
      "ying": 2677,
      "ypes": 2678,
      "ĊĠĠĠ": 2679,
      "Ġ\\\\": 2680,
      "Ġturn": 2681,
      "leting": 2682,
      "Ġcmap": 2683,
      "Ġport": 2684,
      "Ġsm": 2685,
      "Ġrest": 2686,
      "Ġconverting": 2687,
      "dictionary": 2688,
      "els": 2689,
      "temp": 2690,
      "matrix": 2691,
      "Ġsequen": 2692,
      "Ġ+=": 2693,
      "Ġmultiprocessing": 2694,
      "Ġstdin": 2695,
      "ized": 2696,
      "Config": 2697,
      "sorting": 2698,
      "Ġ50": 2699,
      "Ġdetermine": 2700,
      "ĠUsing": 2701,
      "ĠUser": 2702,
      "apping": 2703,
      "Ġdifference": 2704,
      "requests": 2705,
      "something": 2706,
      "ookie": 2707,
      "command": 2708,
      "ĠPyQt": 2709,
      "modules": 2710,
      "Ġoccurrence": 2711,
      "Ġtransform": 2712,
      "ĠOpenCV": 2713,
      "Ġrot": 2714,
      "97": 2715,
      "Image": 2716,
      "SIG": 2717,
      "Up": 2718,
      "he": 2719,
      "mis": 2720,
      "uter": 2721,
      "ward": 2722,
      "ylabel": 2723,
      "Ġright": 2724,
      "ster": 2725,
      "Ġiniti": 2726,
      "Ġincre": 2727,
      "ything": 2728,
      "('\"": 2729,
      "alog": 2730,
      "Ġsql": 2731,
      "Ġmissing": 2732,
      "Ġthree": 2733,
      "Ġnd": 2734,
      "))[": 2735,
      "Ġevent": 2736,
      "older": 2737,
      "']].": 2738,
      "setattr": 2739,
      "Ġchild": 2740,
      "erson": 2741,
      "Ġsession": 2742,
      "quit": 2743,
      "respon": 2744,
      "proc": 2745,
      "sheet": 2746,
      "Ġparam": 2747,
      "Ġindexing": 2748,
      "Ġaddress": 2749,
      "ours": 2750,
      "(**": 2751,
      "sive": 2752,
      "iterable": 2753,
      "'},": 2754,
      "Ġmatches": 2755,
      "ĠLists": 2756,
      "limit": 2757,
      "Ġresponse": 2758,
      "Ġ>=": 2759,
      "numeric": 2760,
      "Ġselected": 2761,
      "Color": 2762,
      "Ġcorrect": 2763,
      "789": 2764,
      "Return": 2765,
      "separated": 2766,
      "+\\\\": 2767,
      "--": 2768,
      "45": 2769,
      "By": 2770,
      "Item": 2771,
      "Mo": 2772,
      "YY": 2773,
      "auth": 2774,
      "cript": 2775,
      "cending": 2776,
      "dates": 2777,
      "ection": 2778,
      "ging": 2779,
      "hash": 2780,
      "iew": 2781,
      "nx": 2782,
      "pri": 2783,
      "qr": 2784,
      "ylim": 2785,
      "ĠK": 2786,
      "insum": 2787,
      "ert": 2788,
      "att": 2789,
      "Ġtxt": 2790,
      "Ġtry": 2791,
      "Ġfunc": 2792,
      "Ġfixed": 2793,
      "Ġcase": 2794,
      "message": 2795,
      "Ġob": 2796,
      "Ġsk": 2797,
      "())))": 2798,
      "Ġvalid": 2799,
      "Ġreference": 2800,
      "ric": 2801,
      "Ġdist": 2802,
      "uring": 2803,
      "setLevel": 2804,
      "Ġconver": 2805,
      "Ġlink": 2806,
      "etree": 2807,
      "Redirect": 2808,
      "Ġsubplot": 2809,
      "Ġwhite": 2810,
      "Ġwhites": 2811,
      "oreign": 2812,
      "Ġbefore": 2813,
      "Ġdecode": 2814,
      "Ġinterpol": 2815,
      "Delete": 2816,
      "Ġresults": 2817,
      "Multiple": 2818,
      "Selecting": 2819,
      "Ġoperator": 2820,
      "abspath": 2821,
      "void": 2822,
      "repr": 2823,
      "password": 2824,
      "Ġndarray": 2825,
      "\":": 2826,
      "->": 2827,
      "10000": 2828,
      "AY": 2829,
      "CK": 2830,
      "Custom": 2831,
      "DD": 2832,
      "Ser": 2833,
      "Some": 2834,
      "button": 2835,
      "ca": 2836,
      "cure": 2837,
      "gtk": 2838,
      "ited": 2839,
      "su": 2840,
      "sage": 2841,
      "tc": 2842,
      "wb": 2843,
      "xlim": 2844,
      "xls": 2845,
      "yy": 2846,
      "}\\\\": 2847,
      "ater": 2848,
      "org": 2849,
      "Ġfrequency": 2850,
      "Ġpop": 2851,
      "Ġsqu": 2852,
      "tension": 2853,
      "gether": 2854,
      "))))": 2855,
      "ouse": 2856,
      "Ġ18": 2857,
      "ado": 2858,
      "utc": 2859,
      "Ġconversion": 2860,
      "ĠPlot": 2861,
      "oop": 2862,
      "ĠSpark": 2863,
      "angle": 2864,
      "Trans": 2865,
      "syn": 2866,
      "Ġparen": 2867,
      "Ġleft": 2868,
      "Ġpost": 2869,
      "intersection": 2870,
      "Ġoverla": 2871,
      "ĠRegex": 2872,
      "number": 2873,
      "username": 2874,
      "Ġdisable": 2875,
      "aking": 2876,
      "Apply": 2877,
      "Ġrepeat": 2878,
      "Ġplace": 2879,
      "Ġtags": 2880,
      "HTTP": 2881,
      "/',": 2882,
      "67": 2883,
      "An": 2884,
      "Dynam": 2885,
      "Merge": 2886,
      "Make": 2887,
      "Num": 2888,
      "dic": 2889,
      "event": 2890,
      "einsum": 2891,
      "here": 2892,
      "ia": 2893,
      "iref": 2894,
      "late": 2895,
      "ming": 2896,
      "ner": 2897,
      "norm": 2898,
      "pk": 2899,
      "target": 2900,
      "valid": 2901,
      "Ġauth": 2902,
      "Ġtup": 2903,
      "oriz": 2904,
      "rename": 2905,
      "reverse": 2906,
      "Ġpos": 2907,
      "Ġold": 2908,
      "('//": 2909,
      "Ġrequi": 2910,
      "dian": 2911,
      "diff": 2912,
      "ĠDe": 2913,
      "ood": 2914,
      "exe": 2915,
      "Ġcombine": 2916,
      "Ġplotting": 2917,
      "files": 2918,
      "Ġscipy": 2919,
      "bytes": 2920,
      "ĠFrame": 2921,
      "ĠAPI": 2922,
      "cols": 2923,
      "Ġengine": 2924,
      "reading": 2925,
      "ignore": 2926,
      "Ġweek": 2927,
      "ĠRow": 2928,
      "Ġaccord": 2929,
      "ongo": 2930,
      "Combining": 2931,
      "Ġsyntax": 2932,
      "Ġimshow": 2933,
      "concatenate": 2934,
      "Ġpassword": 2935,
      "This": 2936,
      "register": 2937,
      "Ġmarkers": 2938,
      "Ġadmin": 2939,
      "ava": 2940,
      "ategor": 2941,
      "Ġunittest": 2942,
      "Ġglobal": 2943,
      "Ġneg": 2944,
      "arnings": 2945,
      "seconds": 2946,
      "SERT": 2947,
      "irefox": 2948,
      "Ġaccording": 2949,
      "*')": 2950,
      "09": 2951,
      "21": 2952,
      "50": 2953,
      "AP": 2954,
      "Ar": 2955,
      "GR": 2956,
      "Handler": 2957,
      "NA": 2958,
      "OrderedDict": 2959,
      "Pre": 2960,
      "Tkinter": 2961,
      "Use": 2962,
      "Write": 2963,
      "])))": 2964,
      "]+)": 2965,
      "folder": 2966,
      "nce": 2967,
      "uation": 2968,
      "yaxis": 2969,
      "Ġavoid": 2970,
      "Ġtab": 2971,
      "Ġflask": 2972,
      "req": 2973,
      "repe": 2974,
      "reindex": 2975,
      "literal": 2976,
      "Ġpri": 2977,
      "Ġput": 2978,
      "Ġsoup": 2979,
      "ges": 2980,
      "enter": 2981,
      "titem": 2982,
      "Ġdimensional": 2983,
      "ish": 2984,
      "isin": 2985,
      "chan": 2986,
      "Ġarr": 2987,
      "Ġchunk": 2988,
      "plic": 2989,
      "ssh": 2990,
      "mbed": 2991,
      "ids": 2992,
      "active": 2993,
      "izing": 2994,
      "Ġdepend": 2995,
      "shutil": 2996,
      "shuffle": 2997,
      "Ġascending": 2998,
      "Ġquo": 2999,
      "Ġmodules": 3000,
      "antom": 3001,
      "Ġlay": 3002,
      "package": 3003,
      "Ġdecor": 3004,
      "Ġwebsite": 3005,
      "tically": 3006,
      "pose": 3007,
      "Ġsymb": 3008,
      "ATE": 3009,
      "MyModel": 3010,
      "Ġseconds": 3011,
      "ornado": 3012,
      "Ġcorrespon": 3013,
      "ĠConvert": 3014,
      "Ġsubstrings": 3015,
      "ĠComprehension": 3016,
      "cumsum": 3017,
      "Ġclick": 3018,
      "Ġdynamic": 3019,
      "Ġdynamically": 3020,
      "Path": 3021,
      "Ġdocument": 3022,
      "Ġinterpolation": 3023,
      "27": 3024,
      "38": 3025,
      "59": 3026,
      "60": 3027,
      "?)": 3028,
      "Calcul": 3029,
      "Gui": 3030,
      "Im": 3031,
      "Match": 3032,
      "SS": 3033,
      "Slicing": 3034,
      "Widget": 3035,
      "bers": 3036,
      "just": 3037,
      "over": 3038,
      "pos": 3039,
      "ront": 3040,
      "wd": 3041,
      "ĠZ": 3042,
      "Ġjo": 3043,
      "ones": 3044,
      "Ġass": 3045,
      "rest": 3046,
      "real": 3047,
      "like": 3048,
      "Ġtogether": 3049,
      "Ġcir": 3050,
      "ars": 3051,
      "Ġ'_": 3052,
      "Ġwait": 3053,
      "')])": 3054,
      "Ġnull": 3055,
      "Ġeven": 3056,
      "olve": 3057,
      "ĠIP": 3058,
      "abel": 3059,
      "abric": 3060,
      "Ġconnection": 3061,
      "dist": 3062,
      "ĠDec": 3063,
      "([('": 3064,
      "ĠSub": 3065,
      "Ġgetting": 3066,
      "queue": 3067,
      "Ġstop": 3068,
      "Ġdebug": 3069,
      "groups": 3070,
      "Ġmemb": 3071,
      "Ġjust": 3072,
      "Ġorig": 3073,
      "(?!": 3074,
      "Ġweight": 3075,
      "ĠRE": 3076,
      "Ġcommas": 3077,
      "Ġupper": 3078,
      "escap": 3079,
      "escript": 3080,
      "Ġtables": 3081,
      "tuples": 3082,
      "types": 3083,
      "(',',": 3084,
      "QtGui": 3085,
      "ĠSQLite": 3086,
      "ĠMultiple": 3087,
      "ĠMySQLdb": 3088,
      "Ġexisting": 3089,
      "ALL": 3090,
      "Ġkeeping": 3091,
      "Formatter": 3092,
      "trace": 3093,
      "lections": 3094,
      "Ġsignal": 3095,
      "ION": 3096,
      "Ġamount": 3097,
      "nonzero": 3098,
      "Ġdownload": 3099,
      "alpha": 3100,
      "Ġignore": 3101,
      "Ġbeginning": 3102,
      "Ġalphabe": 3103,
      "utomat": 3104,
      "Ġsequences": 3105,
      "Ġskip": 3106,
      "Ġconverted": 3107,
      "Ġcorresponding": 3108,
      ".%": 3109,
      "1000": 3110,
      "26": 3111,
      "AA": 3112,
      "Box": 3113,
      "NG": 3114,
      "POST": 3115,
      "View": 3116,
      "card": 3117,
      "mk": 3118,
      "many": 3119,
      "net": 3120,
      "slice": 3121,
      "tract": 3122,
      "erging": 3123,
      "Ġtake": 3124,
      "Ġdb": 3125,
      "anum": 3126,
      "arting": 3127,
      "Ġ':": 3128,
      "('>": 3129,
      "listdir": 3130,
      "Ġside": 3131,
      "())]": 3132,
      "rap": 3133,
      "ntry": 3134,
      "ulation": 3135,
      "cell": 3136,
      "Ġ1000": 3137,
      "apple": 3138,
      "isinstance": 3139,
      "chdir": 3140,
      "total": 3141,
      "settings": 3142,
      "Ġ([": 3143,
      "])',": 3144,
      "Ġcho": 3145,
      "ĠPar": 3146,
      "ĠPro": 3147,
      "ĠSc": 3148,
      "Ġhelp": 3149,
      "configure": 3150,
      "Replacing": 3151,
      "ents": 3152,
      "Ġexpand": 3153,
      "())}": 3154,
      "resample": 3155,
      "subplot": 3156,
      "ĠASCII": 3157,
      "ific": 3158,
      "reader": 3159,
      "Ġaddition": 3160,
      "Ġcolormap": 3161,
      "current": 3162,
      "Ġprinting": 3163,
      "ĠOR": 3164,
      "PyQt": 3165,
      "Ġseri": 3166,
      "Ġexpressions": 3167,
      "Selenium": 3168,
      "Ġoccure": 3169,
      "sock": 3170,
      "Ġqueryset": 3171,
      "Ġfollow": 3172,
      "Ġproperties": 3173,
      "ĠUTC": 3174,
      "rolling": 3175,
      "Ġentry": 3176,
      "learn": 3177,
      "Ġrelated": 3178,
      "ĠColumns": 3179,
      "HERE": 3180,
      "Ġrepresentation": 3181,
      "visible": 3182,
      "Ġwhole": 3183,
      "mission": 3184,
      "oreignKey": 3185,
      "repeat": 3186,
      ")*": 3187,
      ",))": 3188,
      "18": 3189,
      "ASCII": 3190,
      "Admin": 3191,
      "Draw": 3192,
      "Elegant": 3193,
      "HO": 3194,
      "Many": 3195,
      "Per": 3196,
      "Two": 3197,
      "be": 3198,
      "big": 3199,
      "cap": 3200,
      "extract": 3201,
      "pivot": 3202,
      "ring": 3203,
      "wit": 3204,
      "wist": 3205,
      "Ġround": 3206,
      "Ġcookies": 3207,
      "anti": 3208,
      "')).": 3209,
      "()])": 3210,
      "ram": 3211,
      "Ġmust": 3212,
      "ithm": 3213,
      "Ġbrowser": 3214,
      "Ġrecord": 3215,
      "strings": 3216,
      "termin": 3217,
      "rices": 3218,
      "ĠID": 3219,
      "Ġ255": 3220,
      "isnull": 3221,
      "paces": 3222,
      "iling": 3223,
      "ilar": 3224,
      "mote": 3225,
      "Ġstor": 3226,
      "Ġsubst": 3227,
      "[::": 3228,
      "ĠTo": 3229,
      "ĠLo": 3230,
      "Ġsets": 3231,
      "Ġsetting": 3232,
      "formation": 3233,
      "Ġtimedelta": 3234,
      "ĠmyList": 3235,
      "Ġcreated": 3236,
      "Ġformatted": 3237,
      "Ġadding": 3238,
      "ĠBase": 3239,
      "ĠWith": 3240,
      "screen": 3241,
      "Ġalong": 3242,
      "https": 3243,
      "rency": 3244,
      "Counting": 3245,
      "vascript": 3246,
      "Parse": 3247,
      "The": 3248,
      "ĠExcel": 3249,
      "Ġalpha": 3250,
      "Ġmarker": 3251,
      "unctuation": 3252,
      "params": 3253,
      "randint": 3254,
      "Ġcapture": 3255,
      "ĠElementTree": 3256,
      "afe": 3257,
      "lags": 3258,
      "Ġhighest": 3259,
      "Ġnegative": 3260,
      "ĠDecimal": 3261,
      "07": 3262,
      "54": 3263,
      "AC": 3264,
      "Co": 3265,
      "Do": 3266,
      "FI": 3267,
      "IM": 3268,
      "Id": 3269,
      "LO": 3270,
      "Me": 3271,
      "One": 3272,
      "[~": 3273,
      "aded": 3274,
      "bind": 3275,
      "gress": 3276,
      "imat": 3277,
      "jac": 3278,
      "kill": 3279,
      "pprint": 3280,
      "ru": 3281,
      "xs": 3282,
      "zz": 3283,
      "Ġlimit": 3284,
      "erating": 3285,
      "Ġfast": 3286,
      "Ġtoken": 3287,
      "Ġpad": 3288,
      "Ġmask": 3289,
      "Ġthird": 3290,
      "til": 3291,
      "Ġbit": 3292,
      "Ġbash": 3293,
      "Ġeas": 3294,
      "Ġrecur": 3295,
      "cept": 3296,
      "urface": 3297,
      "pylab": 3298,
      "Ġ(-": 3299,
      "='%": 3300,
      "ĠSS": 3301,
      "Ġhttp": 3302,
      "Ġgre": 3303,
      "tach": 3304,
      "Ġchars": 3305,
      "Trying": 3306,
      "Ġstderr": 3307,
      "subset": 3308,
      "ĠType": 3309,
      "Ġenti": 3310,
      "ĠDataFrames": 3311,
      "Ġnotation": 3312,
      "argsort": 3313,
      "Ġspecify": 3314,
      "'}}": 3315,
      "newaxis": 3316,
      "Char": 3317,
      "scipy": 3318,
      "ĠGU": 3319,
      "fromkeys": 3320,
      "Ġloops": 3321,
      "ĠRemove": 3322,
      "full": 3323,
      "Ġpyplot": 3324,
      "Ġpygame": 3325,
      "what": 3326,
      "Ġframework": 3327,
      "agon": 3328,
      "Ġcursor": 3329,
      "Ġintersection": 3330,
      "Ġlogin": 3331,
      "Ġseparated": 3332,
      "Ġtrue": 3333,
      "Ġbuilt": 3334,
      "Formatting": 3335,
      "train": 3336,
      "vironment": 3337,
      "status": 3338,
      "tags": 3339,
      "UTF": 3340,
      "Ġrelation": 3341,
      "Ġcapit": 3342,
      "123456": 3343,
      "Decimal": 3344,
      "blue": 3345,
      "duplicates": 3346,
      "Ġlayout": 3347,
      "wisted": 3348,
      "ĠTypeError": 3349,
      "\"')": 3350,
      "52": 3351,
      "57": 3352,
      "87": 3353,
      "Beautiful": 3354,
      "DO": 3355,
      "En": 3356,
      "Element": 3357,
      "Str": 3358,
      "UN": 3359,
      "Word": 3360,
      "[@": 3361,
      "[{'": 3362,
      "aw": 3363,
      "avascript": 3364,
      "equal": 3365,
      "fu": 3366,
      "gca": 3367,
      "hist": 3368,
      "king": 3369,
      "ped": 3370,
      "pid": 3371,
      "sity": 3372,
      "ush": 3373,
      "ym": 3374,
      "zing": 3375,
      "Ġact": 3376,
      "Ġaction": 3377,
      "Ġtri": 3378,
      "Ġfront": 3379,
      "Ġcriter": 3380,
      "Ġpix": 3381,
      "Ġpunctuation": 3382,
      "annotate": 3383,
      "Ġwant": 3384,
      "lour": 3385,
      "Ġsu": 3386,
      "Ġslicing": 3387,
      "Ġmonth": 3388,
      "esis": 3389,
      "Ġnan": 3390,
      "Ġeval": 3391,
      "Ġrect": 3392,
      "ĠINT": 3393,
      "Ġ200": 3394,
      "ading": 3395,
      "token": 3396,
      "xtra": 3397,
      "Ġlower": 3398,
      "serve": 3399,
      "ĠSt": 3400,
      "ĠSet": 3401,
      "Ġextension": 3402,
      "uples": 3403,
      "Ġcomple": 3404,
      "odes": 3405,
      "profile": 3406,
      "Ġtimeout": 3407,
      "web": 3408,
      "ĠWorld": 3409,
      "fference": 3410,
      "score": 3411,
      "Ġimages": 3412,
      "Ġopencv": 3413,
      "Ġshare": 3414,
      "Ġacross": 3415,
      "Ġwebpage": 3416,
      "Compare": 3417,
      "lative": 3418,
      "Ġdiscont": 3419,
      "+)\\\\": 3420,
      "Ġsimilar": 3421,
      "otebook": 3422,
      "ĠIndex": 3423,
      "Checking": 3424,
      "ALU": 3425,
      "Ġplaces": 3426,
      "Ġassignment": 3427,
      "ĠCheck": 3428,
      "spines": 3429,
      "Ġdays": 3430,
      "TypeError": 3431,
      "errypy": 3432,
      "Ġdimensions": 3433,
      "Ġconcatenate": 3434,
      "ottom": 3435,
      "('(?<=": 3436,
      "Ġpolar": 3437,
      "ility": 3438,
      "Ġwhitespace": 3439,
      "chanize": 3440,
      "Ġquotes": 3441,
      "utomatically": 3442,
      "anumeric": 3443,
      ")+": 3444,
      "*\\\\": 3445,
      "31": 3446,
      "40": 3447,
      "47": 3448,
      "96": 3449,
      "Bar": 3450,
      "Case": 3451,
      "DB": 3452,
      "DI": 3453,
      "IP": 3454,
      "PL": 3455,
      "Play": 3456,
      "Table": 3457,
      "ai": 3458,
      "ace": 3459,
      "dtype": 3460,
      "ee": 3461,
      "kind": 3462,
      "man": 3463,
      "none": 3464,
      "spa": 3465,
      "uid": 3466,
      "ining": 3467,
      "Ġagg": 3468,
      "Ġtask": 3469,
      "lem": 3470,
      "Ġclear": 3471,
      "Ġdpi": 3472,
      "ana": 3473,
      "alues": 3474,
      "locator": 3475,
      "Ġsup": 3476,
      "ĠPythonic": 3477,
      "Ġborder": 3478,
      "Ġblock": 3479,
      "Ġelegant": 3480,
      "Ġrelative": 3481,
      "ctionaries": 3482,
      "Ġ14": 3483,
      "ision": 3484,
      "unquote": 3485,
      "utable": 3486,
      "Ġconta": 3487,
      "Ġcontext": 3488,
      "Ġconstruct": 3489,
      "Ġdot": 3490,
      "directory": 3491,
      "Ġ30": 3492,
      "Ġsep": 3493,
      "Ġseaborn": 3494,
      "([])": 3495,
      "serting": 3496,
      "Ġhash": 3497,
      "mod": 3498,
      "Ġmultiplication": 3499,
      "Ġextern": 3500,
      "Ġextend": 3501,
      "Ġisinstance": 3502,
      "Concat": 3503,
      "lasses": 3504,
      "ĠTh": 3505,
      "ĠLa": 3506,
      "Ġsettings": 3507,
      "shift": 3508,
      "Ġused": 3509,
      "Ġenvironment": 3510,
      "Ġparalle": 3511,
      "Ġmeta": 3512,
      "ĠButton": 3513,
      "week": 3514,
      "Ġ{}'.": 3515,
      "Ġstrip": 3516,
      "Ġquote": 3517,
      "fromtimestamp": 3518,
      "Ġnewline": 3519,
      "Ġ:]": 3520,
      "SQLAlchemy": 3521,
      "(','))": 3522,
      "ĠVALU": 3523,
      "ĠSeaborn": 3524,
      "login": 3525,
      "Deleting": 3526,
      "('.')": 3527,
      "Ġliteral": 3528,
      "transpose": 3529,
      "msg": 3530,
      "255": 3531,
      "fields": 3532,
      "Ġbuttons": 3533,
      "writerows": 3534,
      "inalg": 3535,
      "mtp": 3536,
      "Ġoptional": 3537,
      "xyz": 3538,
      "points": 3539,
      "unicate": 3540,
      "ormalize": 3541,
      "Ġcorrectly": 3542,
      "Ġtrying": 3543,
      "Ġobtain": 3544,
      "Ġoverlapping": 3545,
      "orizont": 3546,
      "NAME": 3547,
      "Ġdecorator": 3548,
      "Ġalphabetically": 3549,
      "ĠINTO": 3550,
      "Ġdiscontinuous": 3551,
      ")[:,": 3552,
      "/(?": 3553,
      "42": 3554,
      "77": 3555,
      "94": 3556,
      ";')": 3557,
      ">\\\\": 3558,
      "?',": 3559,
      "AS": 3560,
      "Auto": 3561,
      "Close": 3562,
      "IT": 3563,
      "Imp": 3564,
      "NumPy": 3565,
      "RGB": 3566,
      "Simple": 3567,
      "Users": 3568,
      "[\\\\": 3569,
      "_())": 3570,
      "alen": 3571,
      "cs": 3572,
      "hn": 3573,
      "lon": 3574,
      "linalg": 3575,
      "mon": 3576,
      "mpl": 3577,
      "off": 3578,
      "pec": 3579,
      "patch": 3580,
      "pickle": 3581,
      "rank": 3582,
      "source": 3583,
      "td": 3584,
      "task": 3585,
      "ves": 3586,
      "world": 3587,
      "xticks": 3588,
      "}.": 3589,
      "Ġali": 3590,
      "reactor": 3591,
      "med": 3592,
      "Ġdes": 3593,
      "seq": 3594,
      "Ġ'{": 3595,
      "Ġ'+',": 3596,
      "Ġwriting": 3597,
      "Ġworld": 3598,
      "('([": 3599,
      "Ġso": 3600,
      "Ġmode": 3601,
      "Ġmapping": 3602,
      "Ġnode": 3603,
      "atex": 3604,
      "Ġremote": 3605,
      "ĠItem": 3606,
      "ĠISO": 3607,
      "ception": 3608,
      "api": 3609,
      "unit": 3610,
      "utput": 3611,
      "axes": 3612,
      "Ġ32": 3613,
      "math": 3614,
      "='\\": 3615,
      "ĠSplit": 3616,
      "myfile": 3617,
      "ipel": 3618,
      "vals": 3619,
      "Ġlocation": 3620,
      "prefix": 3621,
      "ĠNum": 3622,
      "ĠFor": 3623,
      "Ġuntil": 3624,
      "argmax": 3625,
      "Ġproject": 3626,
      "ĠTime": 3627,
      "Ġranges": 3628,
      "finding": 3629,
      "location": 3630,
      "pdb": 3631,
      "Ġbeen": 3632,
      "Ġbetter": 3633,
      "ĠGTK": 3634,
      "2012": 3635,
      "Ġpylab": 3636,
      "Ġbins": 3637,
      "....": 3638,
      "connection": 3639,
      "INSERT": 3640,
      "Ġtesting": 3641,
      "dump": 3642,
      "ĠValues": 3643,
      "Ġminor": 3644,
      "Ġnamespace": 3645,
      "('{}": 3646,
      "ĠQuery": 3647,
      "itive": 3648,
      "Ġrepetition": 3649,
      "ikit": 3650,
      "dog": 3651,
      "ĠConverting": 3652,
      "ĠExpression": 3653,
      "Ġpatterns": 3654,
      "ĠColor": 3655,
      "Ġadjac": 3656,
      "Ġstatements": 3657,
      "Ġoptions": 3658,
      "Ġneed": 3659,
      "eatmap": 3660,
      "Ġstatus": 3661,
      "Ġabs": 3662,
      "Ġdefine": 3663,
      "Ġblank": 3664,
      "Calling": 3665,
      "decimal": 3666,
      "ĠRequests": 3667,
      "Ġsmall": 3668,
      "Update": 3669,
      "attribute": 3670,
      "Dynamically": 3671,
      "Ġfollowing": 3672,
      "Ġsubstit": 3673,
      "Ġgreater": 3674,
      "agonal": 3675,
      "Ġcriteria": 3676,
      "Ġexternal": 3677,
      "\"',": 3678,
      "'m": 3679,
      "(.": 3680,
      "+')": 3681,
      ":],": 3682,
      ";',": 3683,
      "Assign": 3684,
      "CP": 3685,
      "Driver": 3686,
      "Equal": 3687,
      "FO": 3688,
      "Te": 3689,
      "cd": 3690,
      "cor": 3691,
      "eed": 3692,
      "echo": 3693,
      "font": 3694,
      "ha": 3695,
      "hantom": 3696,
      "ian": 3697,
      "ired": 3698,
      "js": 3699,
      "lust": 3700,
      "mit": 3701,
      "rsplit": 3702,
      "slash": 3703,
      "xl": 3704,
      "}]": 3705,
      "}')": 3706,
      "âĢ": 3707,
      "Ġ$": 3708,
      "three": 3709,
      "Ġinformation": 3710,
      "Ġtell": 3711,
      "ings": 3712,
      "Ġfix": 3713,
      "Ġflat": 3714,
      "men": 3715,
      "Ġden": 3716,
      "sen": 3717,
      "seek": 3718,
      "Ġwas": 3719,
      "('_": 3720,
      "ros": 3721,
      "ession": 3722,
      "Ġnargs": 3723,
      "tight": 3724,
      "Ġembed": 3725,
      "Ġextra": 3726,
      "rive": 3727,
      "Ġ21": 3728,
      "Ġ24": 3729,
      "uni": 3730,
      "indices": 3731,
      "Ġ[],": 3732,
      "Ġ--": 3733,
      "ily": 3734,
      "matically": 3735,
      "Ġkeyword": 3736,
      "cesses": 3737,
      "__()": 3738,
      "Ġhy": 3739,
      "Ġgtk": 3740,
      "idd": 3741,
      "imer": 3742,
      "exist": 3743,
      "ĠMac": 3744,
      "ĠCanvas": 3745,
      "Ġcompar": 3746,
      ")].": 3747,
      "Ġ45": 3748,
      "Ġstand": 3749,
      "Ġscroll": 3750,
      "izer": 3751,
      "true": 3752,
      "combinations": 3753,
      "Ġunpack": 3754,
      "Ġproxy": 3755,
      "ĠLI": 3756,
      "ĠLine": 3757,
      "ship": 3758,
      "Ġparts": 3759,
      "Ġpartial": 3760,
      "'])['": 3761,
      "Integer": 3762,
      "webb": 3763,
      "ĠExtract": 3764,
      "pdating": 3765,
      "Ġspecified": 3766,
      "(?=[": 3767,
      "Ġsplitting": 3768,
      "licy": 3769,
      "grams": 3770,
      "Ġservice": 3771,
      "Ġcomprehensions": 3772,
      "Ġprevent": 3773,
      "Ġperiod": 3774,
      "111": 3775,
      "nums": 3776,
      "communicate": 3777,
      "vious": 3778,
      "alizing": 3779,
      "Ġbars": 3780,
      "INT": 3781,
      "Ġeverything": 3782,
      "elements": 3783,
      "Ġmove": 3784,
      "Ġcontinuous": 3785,
      "Ġsimplest": 3786,
      "Unicode": 3787,
      "TER": 3788,
      "stats": 3789,
      "Ġmanip": 3790,
      "black": 3791,
      "Ġvertical": 3792,
      "Ġedit": 3793,
      "Ġencoded": 3794,
      "Display": 3795,
      "Ġoffset": 3796,
      "Ġphra": 3797,
      "Ġnetworkx": 3798,
      "Ġsqlalchemy": 3799,
      "price": 3800,
      "Ġsquare": 3801,
      "Ġjoined": 3802,
      "Drawing": 3803,
      "FILE": 3804,
      "Ġentire": 3805,
      "fusion": 3806,
      "ĠVALUES": 3807,
      "orizontal": 3808,
      "36": 3809,
      "53": 3810,
      "=-": 3811,
      ">'": 3812,
      "Core": 3813,
      "EX": 3814,
      "FF": 3815,
      "KE": 3816,
      "Loop": 3817,
      "MM": 3818,
      "Mat": 3819,
      "NO": 3820,
      "Turn": 3821,
      "US": 3822,
      "URL": 3823,
      "ULL": 3824,
      "Var": 3825,
      "XX": 3826,
      "Your": 3827,
      "action": 3828,
      "auto": 3829,
      "cp": 3830,
      "car": 3831,
      "cnt": 3832,
      "ccess": 3833,
      "custom": 3834,
      "cls": 3835,
      "flask": 3836,
      "fetch": 3837,
      "gb": 3838,
      "go": 3839,
      "hours": 3840,
      "ijk": 3841,
      "ktop": 3842,
      "mary": 3843,
      "nes": 3844,
      "qt": 3845,
      "sure": 3846,
      "widget": 3847,
      "warnings": 3848,
      "xticklabels": 3849,
      "zen": 3850,
      "Ġ,": 3851,
      "inct": 3852,
      "Ġaround": 3853,
      "Ġinline": 3854,
      "atio": 3855,
      "Ġtypes": 3856,
      "oring": 3857,
      "Ġfail": 3858,
      "Ġcum": 3859,
      "Ġpr": 3860,
      "Ġpipe": 3861,
      "roub": 3862,
      "Ġsli": 3863,
      "Ġsparse": 3864,
      "engine": 3865,
      "Ġfore": 3866,
      "Ġnorm": 3867,
      "Ġbits": 3868,
      "Ġvery": 3869,
      "Ġreg": 3870,
      "olute": 3871,
      "versing": 3872,
      "icro": 3873,
      "Ġ15": 3874,
      "iso": 3875,
      "ches": 3876,
      "setdefault": 3877,
      "uting": 3878,
      "Ġconfig": 3879,
      "timetuple": 3880,
      "timezone": 3881,
      "illi": 3882,
      "make": 3883,
      "ĠSoup": 3884,
      "ĠSci": 3885,
      "Ġhe": 3886,
      "converting": 3887,
      "Ġmultiindex": 3888,
      "parsing": 3889,
      "expect": 3890,
      "extend": 3891,
      "Ġexit": 3892,
      "Ġexport": 3893,
      "preter": 3894,
      "Ġ42": 3895,
      "())[": 3896,
      "Ġscal": 3897,
      "byte": 3898,
      "Ġdeal": 3899,
      "ĠLinux": 3900,
      "finditer": 3901,
      "Ġmatrices": 3902,
      "Ġitself": 3903,
      "ĠWHERE": 3904,
      "(?:\\\\": 3905,
      "128": 3906,
      "Ġints": 3907,
      "ĠOne": 3908,
      "ĠOrderedDict": 3909,
      "fromtxt": 3910,
      "Ġ:,": 3911,
      "Ġresize": 3912,
      "buffer": 3913,
      "2014": 3914,
      "Ġaltern": 3915,
      "Ġcurve": 3916,
      "vide": 3917,
      "endswith": 3918,
      "ING": 3919,
      "ildcard": 3920,
      "ĠStrings": 3921,
      "Ġusername": 3922,
      "dropna": 3923,
      "ĠDictionaries": 3924,
      "9999": 3925,
      "Column": 3926,
      "ounds": 3927,
      "Efficiently": 3928,
      "Stat": 3929,
      "Ġmessages": 3930,
      "Ġexcel": 3931,
      "span": 3932,
      "Access": 3933,
      "Ġclient": 3934,
      "idxmax": 3935,
      "blah": 3936,
      "assertEqual": 3937,
      "relation": 3938,
      "ensorflow": 3939,
      "Appending": 3940,
      "Ġseparators": 3941,
      "ĠValueError": 3942,
      "qrt": 3943,
      "realpath": 3944,
      "Ġoriginal": 3945,
      "ĠGUI": 3946,
      "123456789": 3947,
      "ushButton": 3948,
      "Ġadjacent": 3949,
      "$)',": 3950,
      "*.": 3951,
      ",%": 3952,
      "/$',": 3953,
      "ASE": 3954,
      "DR": 3955,
      "Doc": 3956,
      "Down": 3957,
      "IC": 3958,
      "JS": 3959,
      "Red": 3960,
      "Saving": 3961,
      "Windows": 3962,
      "block": 3963,
      "basic": 3964,
      "cast": 3965,
      "category": 3966,
      "cwd": 3967,
      "dat": 3968,
      "fd": 3969,
      "fli": 3970,
      "gor": 3971,
      "has": 3972,
      "hstack": 3973,
      "href": 3974,
      "help": 3975,
      "ict": 3976,
      "lm": 3977,
      "ob": 3978,
      "pan": 3979,
      "plo": 3980,
      "person": 3981,
      "sm": 3982,
      "sqrt": 3983,
      "ually": 3984,
      "Ġrid": 3985,
      "initi": 3986,
      "state": 3987,
      "stant": 3988,
      "Ġtree": 3989,
      "Ġflo": 3990,
      "Ġfit": 3991,
      "removing": 3992,
      "meta": 3993,
      "Ġdomain": 3994,
      "Ġduring": 3995,
      "Ġdrive": 3996,
      "ances": 3997,
      "Ġ'))": 3998,
      "('',": 3999,
      "rozen": 4000,
      "Ġsiz": 4001,
      "()?": 4002,
      "()['": 4003,
      "tive": 4004,
      "asing": 4005,
      "Ġrece": 4006,
      "Ġusage": 4007,
      "']}": 4008,
      "ulative": 4009,
      "ride": 4010,
      "Ġdialog": 4011,
      "plates": 4012,
      "Ġ[]": 4013,
      "Ġ[{'": 4014,
      "Ġconfigure": 4015,
      "Ġconfusion": 4016,
      "dio": 4017,
      "ĠPost": 4018,
      "Ġgo": 4019,
      "Ġgetattr": 4020,
      "expand": 4021,
      "outfile": 4022,
      "ĠMany": 4023,
      "ĠMAT": 4024,
      "pear": 4025,
      "irt": 4026,
      "Ġstyle": 4027,
      "Ġstream": 4028,
      "Ġstarting": 4029,
      "Ġsci": 4030,
      "try": 4031,
      "Cont": 4032,
      "ĠAdd": 4033,
      "lable": 4034,
      "shot": 4035,
      "Ġmath": 4036,
      "Ġparsing": 4037,
      "Ġparser": 4038,
      "foobar": 4039,
      "ordered": 4040,
      "Ġ60": 4041,
      "urls": 4042,
      "Ġcolored": 4043,
      "ality": 4044,
      "Ġoutside": 4045,
      "Ġquick": 4046,
      "genfromtxt": 4047,
      "ĠRegular": 4048,
      "lug": 4049,
      "Ġprevious": 4050,
      "Ġreplacement": 4051,
      "Ġreturns": 4052,
      "earest": 4053,
      "Combine": 4054,
      "Ġinstall": 4055,
      "Search": 4056,
      "(',')": 4057,
      "QtCore": 4058,
      "theses": 4059,
      ".*)": 4060,
      "header": 4061,
      "Proper": 4062,
      "Ġfigures": 4063,
      "Ġwidgets": 4064,
      "Thread": 4065,
      "cluding": 4066,
      "Ġworking": 4067,
      "vars": 4068,
      "\"\"\"{:": 4069,
      "Ġlargest": 4070,
      "Ġoperations": 4071,
      "forever": 4072,
      "COL": 4073,
      "ĠDateTime": 4074,
      "Ġstructured": 4075,
      "localhost": 4076,
      "Iterate": 4077,
      "Ġparamiko": 4078,
      "Ġpositive": 4079,
      "Ġchunks": 4080,
      "Ġsymbol": 4081,
      "escription": 4082,
      "Ġchoices": 4083,
      "ĠScrapy": 4084,
      "Ġrelationship": 4085,
      "unittest": 4086,
      "Ġdensity": 4087,
      "Matrix": 4088,
      "\"]*": 4089,
      "$')": 4090,
      "$\"\"\"": 4091,
      ")[:": 4092,
      "++": 4093,
      ".',": 4094,
      "39": 4095,
      "90": 4096,
      ":].": 4097,
      "?')": 4098,
      "?\\\\": 4099,
      "AE": 4100,
      "AM": 4101,
      "Ed": 4102,
      "Eas": 4103,
      "From": 4104,
      "IS": 4105,
      "LAB": 4106,
      "LTK": 4107,
      "Main": 4108,
      "Merging": 4109,
      "New": 4110,
      "On": 4111,
      "Object": 4112,
      "Pop": 4113,
      "Sy": 4114,
      "Sending": 4115,
      "Tem": 4116,
      "Title": 4117,
      "WS": 4118,
      "WW": 4119,
      "ae": 4120,
      "bab": 4121,
      "cision": 4122,
      "fied": 4123,
      "hi": 4124,
      "ij": 4125,
      "iest": 4126,
      "mtime": 4127,
      "mode": 4128,
      "mory": 4129,
      "ople": 4130,
      "opt": 4131,
      "qs": 4132,
      "rdd": 4133,
      "vid": 4134,
      "vstack": 4135,
      "yg": 4136,
      "yes": 4137,
      "Ġescap": 4138,
      "integer": 4139,
      "inches": 4140,
      "only": 4141,
      "thesis": 4142,
      "stand": 4143,
      "Ġtimer": 4144,
      "Ġdt": 4145,
      "Ġpres": 4146,
      "Ġplt": 4147,
      "Ġpickle": 4148,
      "sect": 4149,
      "seed": 4150,
      "Ġ'__": 4151,
      "Ġ').": 4152,
      "Ġsample": 4153,
      "Ġslash": 4154,
      "ump": 4155,
      "Ġmouse": 4156,
      "Ġmilli": 4157,
      "esktop": 4158,
      "Ġforms": 4159,
      "Ġforward": 4160,
      "tim": 4161,
      "tific": 4162,
      "Ġbind": 4163,
      "Ġbel": 4164,
      "ason": 4165,
      "Ġreal": 4166,
      "ĠIN": 4167,
      "Ġdirect": 4168,
      "ching": 4169,
      "pytz": 4170,
      "Ġcons": 4171,
      "eta": 4172,
      "__,": 4173,
      "__))": 4174,
      "ĠSer": 4175,
      "Ġhere": 4176,
      "Ġhref": 4177,
      "Ġhide": 4178,
      "myDict": 4179,
      "consecutive": 4180,
      "quivalent": 4181,
      "Request": 4182,
      "Reverse": 4183,
      "lencode": 4184,
      "Ġtemp": 4185,
      "ampl": 4186,
      "peed": 4187,
      "ĠName": 4188,
      "Ġscra": 4189,
      "Ġscikit": 4190,
      "comment": 4191,
      "Ġ%(": 4192,
      "ĠFilter": 4193,
      "ĠFabric": 4194,
      "subplots": 4195,
      "ĠTuples": 4196,
      "Ġkill": 4197,
      "Ġascii": 4198,
      "Ġaspect": 4199,
      "ĠUp": 4200,
      "Ġjavascript": 4201,
      "ĠBar": 4202,
      "alidate": 4203,
      "Ġregexp": 4204,
      "ocus": 4205,
      "SOCK": 4206,
      "ĠJinja": 4207,
      "savetxt": 4208,
      "loading": 4209,
      "ĠRGB": 4210,
      "adding": 4211,
      "Ġshor": 4212,
      "('%.": 4213,
      "buf": 4214,
      "fully": 4215,
      "Ġpresent": 4216,
      "Ġpercent": 4217,
      "ager": 4218,
      "SET": 4219,
      "Ġreturning": 4220,
      "users": 4221,
      "Ġinterpreter": 4222,
      "Ġmethods": 4223,
      "Ġcolour": 4224,
      "acked": 4225,
      "Ġconditions": 4226,
      "Ġbackslash": 4227,
      "logical": 4228,
      "refer": 4229,
      "Ġlocals": 4230,
      "Ġmarks": 4231,
      "entific": 4232,
      "Summing": 4233,
      "views": 4234,
      "Ġlevels": 4235,
      "globals": 4236,
      "layout": 4237,
      "Ġstatic": 4238,
      "Ġknown": 4239,
      "=',')": 4240,
      "Ġrotate": 4241,
      "xlsx": 4242,
      "Ġparenthesis": 4243,
      "Number": 4244,
      "plicit": 4245,
      "Copy": 4246,
      "BeautifulSoup": 4247,
      "Ġrectangle": 4248,
      "Ġcomplex": 4249,
      "Ġparallel": 4250,
      "hantomJS": 4251,
      "Ġscrollbar": 4252,
      "webbrowser": 4253,
      "Ġcumulative": 4254,
      "basicConfig": 4255,
      "rozenset": 4256,
      "ĠMATLAB": 4257,
      ")|": 4258,
      ")[::-": 4259,
      "-\\\\": 4260,
      ":',": 4261,
      ">')": 4262,
      "?,": 4263,
      "AND": 4264,
      "Div": 4265,
      "EV": 4266,
      "Google": 4267,
      "ICO": 4268,
      "Min": 4269,
      "Not": 4270,
      "PushButton": 4271,
      "Stri": 4272,
      "UP": 4273,
      "WAY": 4274,
      "]{": 4275,
      "]|": 4276,
      "]\\\\": 4277,
      "au": 4278,
      "ade": 4279,
      "bottom": 4280,
      "down": 4281,
      "flatten": 4282,
      "fru": 4283,
      "gi": 4284,
      "green": 4285,
      "kit": 4286,
      "ltk": 4287,
      "nel": 4288,
      "nces": 4289,
      "rd": 4290,
      "spark": 4291,
      "sns": 4292,
      "tup": 4293,
      "uint": 4294,
      "Ġ//": 4295,
      "inf": 4296,
      "inted": 4297,
      "Ġinher": 4298,
      "err": 4299,
      "Ġfew": 4300,
      "Ġflatten": 4301,
      "rec": 4302,
      "ret": 4303,
      "lish": 4304,
      "Ġcategor": 4305,
      "Ġpdf": 4306,
      "anana": 4307,
      "('|": 4308,
      "('')": 4309,
      "Ġsource": 4310,
      "')[-": 4311,
      "ged": 4312,
      "getitem": 4313,
      "Ġmicro": 4314,
      "ions": 4315,
      "strib": 4316,
      "dev": 4317,
      "Ġbbox": 4318,
      "asp": 4319,
      "Ġvis": 4320,
      "Ġthey": 4321,
      "Ġusers": 4322,
      "ands": 4323,
      "'])]": 4324,
      "ĠInter": 4325,
      "upload": 4326,
      "Ġ13": 4327,
      "Ġ17": 4328,
      "child": 4329,
      "getting": 4330,
      "getcwd": 4331,
      "adjust": 4332,
      "setup": 4333,
      "Ġonce": 4334,
      "Ġ[('": 4335,
      "Ġ[['": 4336,
      "dient": 4337,
      "pair": 4338,
      "Ġlinux": 4339,
      "ĠDup": 4340,
      "ĠPer": 4341,
      "__('": 4342,
      "Ġhier": 4343,
      "Ġhorizontal": 4344,
      "Ġgood": 4345,
      "Repe": 4346,
      "most": 4347,
      "imp": 4348,
      "partition": 4349,
      "\"\"\"^": 4350,
      "\"\"\"\\\\": 4351,
      "ĠMe": 4352,
      "Ġcharts": 4353,
      "Ġstep": 4354,
      "combine": 4355,
      "Ġwhat": 4356,
      "ĠFrom": 4357,
      "Content": 4358,
      "Ġunion": 4359,
      "Ġlinewidth": 4360,
      "ĠTable": 4361,
      "collections": 4362,
      "ĠLe": 4363,
      "ĠLib": 4364,
      "ĠLabel": 4365,
      "Ġmain": 4366,
      "Ġleading": 4367,
      "Ġmysql": 4368,
      "Ġmechanize": 4369,
      "Ġjinja": 4370,
      "Initi": 4371,
      "sitive": 4372,
      "ĠGroup": 4373,
      "ĠOS": 4374,
      "licked": 4375,
      "binascii": 4376,
      "ĠRes": 4377,
      "Ġchanges": 4378,
      "ĠRead": 4379,
      "cise": 4380,
      "Ġiterable": 4381,
      "Ġiterating": 4382,
      "Ġupload": 4383,
      "numbers": 4384,
      "Ġrandomly": 4385,
      "common": 4386,
      "00000000": 4387,
      "ĠPygame": 4388,
      "Ġminute": 4389,
      "Detect": 4390,
      "ATH": 4391,
      "abcd": 4392,
      "Ġ'-',": 4393,
      "ĠDict": 4394,
      "Ġvectorize": 4395,
      "(\"//": 4396,
      "Ġcontrol": 4397,
      "Log": 4398,
      "Ġrepeated": 4399,
      "Ġworks": 4400,
      "Multiply": 4401,
      "Ġcells": 4402,
      "Exec": 4403,
      "Ġerrors": 4404,
      "Grouping": 4405,
      "{{(": 4406,
      "Ġthreads": 4407,
      "Ġbreaks": 4408,
      "options": 4409,
      "Ġdefined": 4410,
      "ĠCounting": 4411,
      "Ġbool": 4412,
      "Ġwhose": 4413,
      "ĠMatrix": 4414,
      "ottle": 4415,
      "Running": 4416,
      "Ġrequires": 4417,
      "ĠRows": 4418,
      "ĠORM": 4419,
      "Ġoccurences": 4420,
      "ĠLogging": 4421,
      "spam": 4422,
      "Ġaggreg": 4423,
      "Ġcontained": 4424,
      "Ġalign": 4425,
      "Ġabsolute": 4426,
      "Assigning": 4427,
      "iddle": 4428,
      "Ġphrases": 4429,
      "rouble": 4430,
      "gorithm": 4431,
      "Ġfloating": 4432,
      "ampling": 4433,
      "Ġhierarch": 4434,
      "\"'": 4435,
      "'\\": 4436,
      ")'": 4437,
      "-\\": 4438,
      ".\\\\": 4439,
      "234": 4440,
      "86": 4441,
      "89": 4442,
      "93": 4443,
      "AN": 4444,
      "Agg": 4445,
      "CC": 4446,
      "Cor": 4447,
      "Cap": 4448,
      "Entry": 4449,
      "Function": 4450,
      "Fill": 4451,
      "GI": 4452,
      "Gtk": 4453,
      "KD": 4454,
      "LI": 4455,
      "Max": 4456,
      "Order": 4457,
      "Post": 4458,
      "PRO": 4459,
      "PATH": 4460,
      "Query": 4461,
      "Row": 4462,
      "Rec": 4463,
      "Rot": 4464,
      "Show": 4465,
      "Save": 4466,
      "Send": 4467,
      "Spec": 4468,
      "Updating": 4469,
      "VER": 4470,
      "break": 4471,
      "cer": 4472,
      "can": 4473,
      "cop": 4474,
      "clean": 4475,
      "city": 4476,
      "cookie": 4477,
      "ds": 4478,
      "domain": 4479,
      "description": 4480,
      "email": 4481,
      "gray": 4482,
      "gres": 4483,
      "long": 4484,
      "lxml": 4485,
      "lins": 4486,
      "mount": 4487,
      "mark": 4488,
      "mongo": 4489,
      "rm": 4490,
      "rp": 4491,
      "sg": 4492,
      "sin": 4493,
      "squ": 4494,
      "simple": 4495,
      "way": 4496,
      "xf": 4497,
      "{}'.": 4498,
      "Ġqueue": 4499,
      "Ġasyn": 4500,
      "Ġautomatically": 4501,
      "thread": 4502,
      "stream": 4503,
      "Ġtf": 4504,
      "ors": 4505,
      "ories": 4506,
      "less": 4507,
      "Ġfour": 4508,
      "Ġflags": 4509,
      "render": 4510,
      "Ġctypes": 4511,
      "Ġdriver": 4512,
      "sep": 4513,
      "Ġ''))": 4514,
      "Ġobj": 4515,
      "Ġouter": 4516,
      "Ġwill": 4517,
      "Ġwrap": 4518,
      "('#": 4519,
      "('((": 4520,
      "('..": 4521,
      "alk": 4522,
      "Ġsw": 4523,
      "Ġsin": 4524,
      "rab": 4525,
      "raph": 4526,
      "Ġmixed": 4527,
      "enumerate": 4528,
      "Ġforce": 4529,
      "atever": 4530,
      "olution": 4531,
      "outer": 4532,
      "iled": 4533,
      "vers": 4534,
      "Ġdir": 4535,
      "cefully": 4536,
      "cherrypy": 4537,
      "urlencode": 4538,
      "plus": 4539,
      "Ġratio": 4540,
      "ely": 4541,
      "edges": 4542,
      "named": 4543,
      "Ġheatmap": 4544,
      "Ġgoogle": 4545,
      "conf": 4546,
      "Ġmultiply": 4547,
      "iding": 4548,
      "part": 4549,
      "partial": 4550,
      "tail": 4551,
      "ffill": 4552,
      "ĠNested": 4553,
      "splitlines": 4554,
      "project": 4555,
      "Ġdest": 4556,
      "sycop": 4557,
      "arger": 4558,
      "ĠAdmin": 4559,
      "Ġproduce": 4560,
      "ĠTensor": 4561,
      "ĠTwisted": 4562,
      "dicts": 4563,
      "ester": 4564,
      "ready": 4565,
      "Ġleast": 4566,
      "Ġfinding": 4567,
      "Ġfindall": 4568,
      "Inserting": 4569,
      "permutations": 4570,
      "locals": 4571,
      "ives": 4572,
      "ĠWay": 4573,
      "Ġbeing": 4574,
      "Ġattr": 4575,
      "Ġattach": 4576,
      "icky": 4577,
      "[[[": 4578,
      "emon": 4579,
      "2010": 4580,
      "Ġ<<": 4581,
      "Ġcounts": 4582,
      "Ġiterator": 4583,
      "Ġframes": 4584,
      "aging": 4585,
      "usr": 4586,
      "('[\\\\": 4587,
      "Difference": 4588,
      "pool": 4589,
      "poch": 4590,
      "nown": 4591,
      "alization": 4592,
      "ĠPyS": 4593,
      "(',')]": 4594,
      "Ġimg": 4595,
      "Ġcommands": 4596,
      "Ġlengths": 4597,
      "Ġ'--": 4598,
      "lsx": 4599,
      "ROOT": 4600,
      "('--": 4601,
      "ftp": 4602,
      "Ġexecution": 4603,
      "Ġproperty": 4604,
      "Ġcallback": 4605,
      "Ġrepeating": 4606,
      "Ġidx": 4607,
      "Ġalphanumeric": 4608,
      "entify": 4609,
      "Ġpositional": 4610,
      "('(.": 4611,
      "Sheet": 4612,
      "[^\\\\": 4613,
      "Ġfontsize": 4614,
      "contents": 4615,
      "ABC": 4616,
      "12345": 4617,
      "8859": 4618,
      "Ġnumerical": 4619,
      "ADDR": 4620,
      "Ġtrailing": 4621,
      "ĠElements": 4622,
      "Ġboth": 4623,
      "Ġblur": 4624,
      "ĠHttpResponseRedirect": 4625,
      "Filtering": 4626,
      "ĠwxPython": 4627,
      "Ġconcaten": 4628,
      "gression": 4629,
      "ĠWebdriver": 4630,
      "Ġrotation": 4631,
      "Server": 4632,
      "Ġparentheses": 4633,
      "Applying": 4634,
      "overflow": 4635,
      "Ġmembers": 4636,
      "mktime": 4637,
      "Ġcapital": 4638,
      "DIR": 4639,
      "Ġdesired": 4640,
      "Ġsmaller": 4641,
      "Ġsubstitution": 4642,
      "exists": 4643,
      "Ġstandard": 4644,
      "Ġmanipulation": 4645,
      "Ġprinted": 4646,
      "Ġforeign": 4647,
      "Edit": 4648,
      "sycopg": 4649,
      "\"?": 4650,
      "'\"": 4651,
      ")[-": 4652,
      "+|\\\\": 4653,
      "29": 4654,
      "35": 4655,
      "84": 4656,
      "95": 4657,
      ":]))": 4658,
      "=('": 4659,
      "><": 4660,
      "AST": 4661,
      "BB": 4662,
      "Bind": 4663,
      "City": 4664,
      "ForeignKey": 4665,
      "GTK": 4666,
      "HP": 4667,
      "JSON": 4668,
      "Man": 4669,
      "Map": 4670,
      "Making": 4671,
      "NF": 4672,
      "No": 4673,
      "OK": 4674,
      "Work": 4675,
      "WIN": 4676,
      "Warning": 4677,
      "Year": 4678,
      "_[": 4679,
      "ares": 4680,
      "ared": 4681,
      "agraph": 4682,
      "css": 4683,
      "cir": 4684,
      "cmap": 4685,
      "cles": 4686,
      "dct": 4687,
      "egg": 4688,
      "eving": 4689,
      "gmail": 4690,
      "handler": 4691,
      "iou": 4692,
      "ios": 4693,
      "kes": 4694,
      "md": 4695,
      "mm": 4696,
      "mies": 4697,
      "missing": 4698,
      "normalize": 4699,
      "nearest": 4700,
      "pad": 4701,
      "raries": 4702,
      "space": 4703,
      "uate": 4704,
      "uage": 4705,
      "ualen": 4706,
      "vai": 4707,
      "wn": 4708,
      "wt": 4709,
      "ware": 4710,
      "windows": 4711,
      "zfill": 4712,
      "Ġ@": 4713,
      "Ġord": 4714,
      "ĠGetting": 4715,
      "inish": 4716,
      "threading": 4717,
      "std": 4718,
      "Ġtrun": 4719,
      "record": 4720,
      "readed": 4721,
      "Ġclean": 4722,
      "Ġcenter": 4723,
      "medi": 4724,
      "Ġdat": 4725,
      "Ġpie": 4726,
      "ane": 4727,
      "arm": 4728,
      "sess": 4729,
      "setitem": 4730,
      "Ġ'*": 4731,
      "Ġmsg": 4732,
      "essage": 4733,
      "Ġthous": 4734,
      "Ġbla": 4735,
      "Ġvow": 4736,
      "Ġvirt": 4737,
      "Ġetc": 4738,
      "Ġreplacing": 4739,
      "ulk": 4740,
      "ulating": 4741,
      "ĠIPython": 4742,
      "very": 4743,
      "Ġdivide": 4744,
      "ctions": 4745,
      "Ġ22": 4746,
      "Ġ25": 4747,
      "plotting": 4748,
      "application": 4749,
      "unch": 4750,
      "pyxl": 4751,
      "Ġonto": 4752,
      "Ġ[-": 4753,
      "Ġ[]).": 4754,
      "Ġconcise": 4755,
      "Ġcols": 4756,
      "matical": 4757,
      "Ġsee": 4758,
      "Ġkeyboard": 4759,
      "Ġcanvas": 4760,
      "anguage": 4761,
      "Ġhost": 4762,
      "Ġhandler": 4763,
      "job": 4764,
      "exp": 4765,
      "Ġexclude": 4766,
      "ams": 4767,
      "amiko": 4768,
      "ĠCan": 4769,
      "Ġcompon": 4770,
      "Ġstack": 4771,
      "Ġsticky": 4772,
      "trl": 4773,
      "ĠForeignKey": 4774,
      "Condition": 4775,
      "Ġunits": 4776,
      "Ġ500": 4777,
      "ĠAND": 4778,
      "Ġprogress": 4779,
      "arrays": 4780,
      "Ġkind": 4781,
      "Ġmaking": 4782,
      "Ġensure": 4783,
      "readlines": 4784,
      "Ġspan": 4785,
      "figsize": 4786,
      "Ġmen": 4787,
      "Ġapps": 4788,
      "ĠEn": 4789,
      "uments": 4790,
      "]].": 4791,
      "ĠWrite": 4792,
      "127": 4793,
      "1252": 4794,
      "opener": 4795,
      "Ġbeha": 4796,
      "oci": 4797,
      "ĠJava": 4798,
      "ĠGtk": 4799,
      "ĠOrder": 4800,
      "Ġopenpyxl": 4801,
      "binary": 4802,
      "ĠRDD": 4803,
      "limited": 4804,
      "bob": 4805,
      "both": 4806,
      "dirs": 4807,
      "Ġoverride": 4808,
      "address": 4809,
      "Ġrespect": 4810,
      "built": 4811,
      "Ġ'.',": 4812,
      "2011": 4813,
      "ants": 4814,
      "Ġcounting": 4815,
      "Ġalready": 4816,
      "Ġdecla": 4817,
      "player": 4818,
      "stackoverflow": 4819,
      "qlAlchemy": 4820,
      "Ġinteractive": 4821,
      "000000": 4822,
      "alized": 4823,
      "Ġsym": 4824,
      "Ġgracefully": 4825,
      "workbook": 4826,
      "Ġreversed": 4827,
      "('./": 4828,
      "('.//": 4829,
      "Ġsecondary": 4830,
      "Ġprogrammatically": 4831,
      "Parser": 4832,
      "Ġdefaultdict": 4833,
      "Ġcalculation": 4834,
      "Ġbuffer": 4835,
      "Locator": 4836,
      "aaa": 4837,
      "Ġplain": 4838,
      "mutable": 4839,
      "TEM": 4840,
      "polate": 4841,
      "static": 4842,
      "ĠChar": 4843,
      "created": 4844,
      "197": 4845,
      "alled": 4846,
      "allest": 4847,
      "Generating": 4848,
      "contour": 4849,
      "ToMany": 4850,
      "eature": 4851,
      "Ġscales": 4852,
      "multiple": 4853,
      "Retri": 4854,
      "ĠCounter": 4855,
      "udent": 4856,
      "Ġboto": 4857,
      "waitKey": 4858,
      "Ġlookup": 4859,
      "letters": 4860,
      "Ġevents": 4861,
      "Calculating": 4862,
      "Ġassoci": 4863,
      "Ġevenly": 4864,
      "Ġmember": 4865,
      "ĠREST": 4866,
      "imation": 4867,
      "ĠSSH": 4868,
      "UNICO": 4869,
      "ĠLambda": 4870,
      "longest": 4871,
      "ipeline": 4872,
      "sensitive": 4873,
      "cntl": 4874,
      "Ġscientific": 4875,
      "aeiou": 4876,
      "stribution": 4877,
      "ĠLegend": 4878,
      "ĠLibrary": 4879,
      "Ġhierarchical": 4880,
      "linspace": 4881,
      "esterday": 4882,
      "ualenv": 4883,
      "Ġbehavi": 4884,
      "UNICODE": 4885,
      "(.*?": 4886,
      "+|": 4887,
      ",),": 4888,
      "-]*": 4889,
      "65": 4890,
      "AG": 4891,
      "Ax": 4892,
      "Array": 4893,
      "Bu": 4894,
      "BGR": 4895,
      "Desktop": 4896,
      "FT": 4897,
      "Flow": 4898,
      "LC": 4899,
      "Lab": 4900,
      "Lib": 4901,
      "MA": 4902,
      "More": 4903,
      "MET": 4904,
      "OM": 4905,
      "OP": 4906,
      "OS": 4907,
      "Output": 4908,
      "QT": 4909,
      "Qu": 4910,
      "RI": 4911,
      "Rel": 4912,
      "Sec": 4913,
      "TR": 4914,
      "Tot": 4915,
      "XT": 4916,
      "XML": 4917,
      "Za": 4918,
      "Zip": 4919,
      "[([": 4920,
      "cam": 4921,
      "clicked": 4922,
      "dT": 4923,
      "des": 4924,
      "emp": 4925,
      "eep": 4926,
      "flat": 4927,
      "handle": 4928,
      "istr": 4929,
      "jax": 4930,
      "lar": 4931,
      "lstrip": 4932,
      "node": 4933,
      "network": 4934,
      "pick": 4935,
      "rong": 4936,
      "sits": 4937,
      "uous": 4938,
      "writing": 4939,
      "you": 4940,
      "{:": 4941,
      "Ġ^": 4942,
      "Ġq": 4943,
      "inner": 4944,
      "ond": 4945,
      "Ġavai": 4946,
      "stuff": 4947,
      "stderr": 4948,
      "Ġinner": 4949,
      "ature": 4950,
      "Ġtwe": 4951,
      "Ġtarget": 4952,
      "led": 4953,
      "lev": 4954,
      "Ġfactor": 4955,
      "Ġfetch": 4956,
      "Ġface": 4957,
      "lit": 4958,
      "lime": 4959,
      "lick": 4960,
      "Ġclo": 4961,
      "Ġcategory": 4962,
      "memb": 4963,
      "mesh": 4964,
      "Ġdon": 4965,
      "Ġpid": 4966,
      "Ġpatch": 4967,
      "Ġpexpect": 4968,
      "Ġpsycopg": 4969,
      "Ġ'+": 4970,
      "('$": 4971,
      "('=": 4972,
      "Ġsaving": 4973,
      "Ġsafe": 4974,
      "Ġsurface": 4975,
      "Ġsmtp": 4976,
      "gent": 4977,
      "():": 4978,
      "race": 4979,
      "enu": 4980,
      "env": 4981,
      "entic": 4982,
      "tify": 4983,
      "asarray": 4984,
      "assed": 4985,
      "Ġvari": 4986,
      "Ġthese": 4987,
      "Ġepoch": 4988,
      "Ġred": 4989,
      "Ġrename": 4990,
      "Ġannotate": 4991,
      "Ġanything": 4992,
      "lots": 4993,
      "']])": 4994,
      "riend": 4995,
      "Ġdiagonal": 4996,
      "Ġxl": 4997,
      "amel": 4998,
      "ameters": 4999,
      "aps": 5000,
      "vect": 5001,
      "ison": 5002,
      "issubset": 5003,
      "Ġarrow": 5004,
      "digest": 5005,
      "dified": 5006,
      "Ġcollection": 5007,
      "Ġcollections": 5008,
      "timeit": 5009,
      "ublic": 5010,
      "Ġlarger": 5011,
      "ords": 5012,
      "etween": 5013,
      "Ġselection": 5014,
      "ĠPa": 5015,
      "ĠPNG": 5016,
      "ĠPhantomJS": 5017,
      "seri": 5018,
      "serving": 5019,
      "Ġkeywords": 5020,
      "__.__": 5021,
      "ĠSV": 5022,
      "ĠSorting": 5023,
      "Ġgray": 5024,
      "conv": 5025,
      "Reversing": 5026,
      "entry": 5027,
      "Ġcomparing": 5028,
      ")]))": 5029,
      "acters": 5030,
      "Ġstacked": 5031,
      "Ġscrapy": 5032,
      "pythonic": 5033,
      "dataframe": 5034,
      "ĠAn": 5035,
      "ĠAuth": 5036,
      "Ġprofile": 5037,
      "grouped": 5038,
      "ified": 5039,
      "ttle": 5040,
      "Ġtimeseries": 5041,
      "Ġsprite": 5042,
      "ĠUse": 5043,
      "Ġmemory": 5044,
      "((?": 5045,
      "Ġformatters": 5046,
      "ĠEntry": 5047,
      "alizer": 5048,
      "fferent": 5049,
      "Ġbea": 5050,
      "country": 5051,
      "ocial": 5052,
      "scroll": 5053,
      "ĠObject": 5054,
      "Ġordering": 5055,
      "ales": 5056,
      "Ġquot": 5057,
      "ively": 5058,
      "ĠRange": 5059,
      "applymap": 5060,
      "empty": 5061,
      "Ġshould": 5062,
      "Ġsheet": 5063,
      "bugging": 5064,
      "bucket": 5065,
      "Ġpyqt": 5066,
      "Ġcertific": 5067,
      "Ġimported": 5068,
      "Ġpaths": 5069,
      "Dictionary": 5070,
      "ĠĠĠĠ": 5071,
      "INFO": 5072,
      "Ġsystem": 5073,
      "ĠVariable": 5074,
      "Country": 5075,
      "Ġconditional": 5076,
      "thematical": 5077,
      "Params": 5078,
      "queryset": 5079,
      "Process": 5080,
      "('-',": 5081,
      "ĠInteger": 5082,
      "Ġ123": 5083,
      "Ġtemplates": 5084,
      "('(?:": 5085,
      "ĠException": 5086,
      "Ġdelimiters": 5087,
      "AllWindows": 5088,
      "[^\"]*": 5089,
      "cumulate": 5090,
      "]+)',": 5091,
      "Ġboxplot": 5092,
      "Ġhistograms": 5093,
      "voke": 5094,
      "ĠFinding": 5095,
      "Script": 5096,
      "Ġedge": 5097,
      "Ġedges": 5098,
      "Join": 5099,
      "John": 5100,
      "erryPy": 5101,
      "(?=\\\\": 5102,
      "Ġrather": 5103,
      "\"\"\",\"\"\".": 5104,
      "Pool": 5105,
      "destroyAllWindows": 5106,
      "swap": 5107,
      "Ġinitialize": 5108,
      "Ġincrease": 5109,
      "Ġparams": 5110,
      "author": 5111,
      "Ġdistance": 5112,
      "ĠFramework": 5113,
      "ĠComprehensions": 5114,
      "Calculate": 5115,
      "Ġassert": 5116,
      "Ġcircle": 5117,
      "ĠParamiko": 5118,
      "Ġserializ": 5119,
      "Ġserialize": 5120,
      "missions": 5121,
      "witch": 5122,
      "Ġrecords": 5123,
      "terminate": 5124,
      "Ġstored": 5125,
      "CharField": 5126,
      "Ġpixel": 5127,
      "Ġlowercase": 5128,
      "Concatenate": 5129,
      "Ġmetaclass": 5130,
      "luster": 5131,
      "Ġfails": 5132,
      "Ġnormal": 5133,
      "COLOR": 5134,
      "vider": 5135,
      "Ġbelong": 5136,
      "EVT": 5137,
      "fruit": 5138,
      "Ġcategorical": 5139,
      "Repeating": 5140,
      "Ġconcatenation": 5141,
      "Total": 5142,
      "Ġsmtplib": 5143,
      "\"]": 5144,
      "'\",": 5145,
      "(.*)": 5146,
      ")(": 5147,
      ")([": 5148,
      ",\\\\": 5149,
      "199": 5150,
      "62": 5151,
      "75": 5152,
      "85": 5153,
      "92": 5154,
      ":<": 5155,
      "=%": 5156,
      "Are": 5157,
      "Auth": 5158,
      "Book": 5159,
      "CH": 5160,
      "CS": 5161,
      "Cur": 5162,
      "DAT": 5163,
      "DOT": 5164,
      "DATE": 5165,
      "Equivalent": 5166,
      "First": 5167,
      "LT": 5168,
      "MO": 5169,
      "Mon": 5170,
      "MTP": 5171,
      "NaN": 5172,
      "QU": 5173,
      "Spa": 5174,
      "Sci": 5175,
      "TH": 5176,
      "Web": 5177,
      "]?": 5178,
      "]})": 5179,
      "creating": 5180,
      "ccessing": 5181,
      "ders": 5182,
      "eating": 5183,
      "fh": 5184,
      "fast": 5185,
      "fier": 5186,
      "gif": 5187,
      "ire": 5188,
      "jection": 5189,
      "lin": 5190,
      "mari": 5191,
      "ope": 5192,
      "pth": 5193,
      "pix": 5194,
      "ptim": 5195,
      "ron": 5196,
      "rmt": 5197,
      "sq": 5198,
      "src": 5199,
      "surface": 5200,
      "tn": 5201,
      "tad": 5202,
      "tColor": 5203,
      "uri": 5204,
      "uch": 5205,
      "uted": 5206,
      "udio": 5207,
      "walk": 5208,
      "xies": 5209,
      "{(": 5210,
      "that": 5211,
      "threaded": 5212,
      "stab": 5213,
      "stam": 5214,
      "stop": 5215,
      "eration": 5216,
      "ats": 5217,
      "Ġtak": 5218,
      "lex": 5219,
      "reation": 5220,
      "redirect": 5221,
      "requi": 5222,
      "lify": 5223,
      "Ġcut": 5224,
      "median": 5225,
      "Ġdash": 5226,
      "Ġpan": 5227,
      "Ġpassed": 5228,
      "anning": 5229,
      "arrange": 5230,
      "Ġ'|": 5231,
      "Ġodd": 5232,
      "',),": 5233,
      "ctypes": 5234,
      "Ġwildcard": 5235,
      "('!": 5236,
      "road": 5237,
      "look": 5238,
      "Ġssh": 5239,
      "Ġsite": 5240,
      "tesi": 5241,
      "tening": 5242,
      "'))]": 5243,
      "()}": 5244,
      "Ġmime": 5245,
      "Ġmiddle": 5246,
      "Ġiss": 5247,
      "deo": 5248,
      "delimited": 5249,
      "tile": 5250,
      "ither": 5251,
      "Ġbound": 5252,
      "Ġvs": 5253,
      "Ġvalidate": 5254,
      "ntu": 5255,
      "Ġelem": 5256,
      "Ġeither": 5257,
      "Ġregression": 5258,
      "olu": 5259,
      "Ġunder": 5260,
      "ics": 5261,
      "Ġ19": 5262,
      "isalpha": 5263,
      "Ġarch": 5264,
      "uration": 5265,
      "itance": 5266,
      "sets": 5267,
      "setWindow": 5268,
      "setlocale": 5269,
      "setsock": 5270,
      "Ġ((": 5271,
      "Ġ[[(": 5272,
      "ellow": 5273,
      "Ġchrome": 5274,
      "Ġlin": 5275,
      "ĠDo": 5276,
      "ĠDis": 5277,
      "etc": 5278,
      "Ġseg": 5279,
      "male": 5280,
      "edge": 5281,
      "oot": 5282,
      "oose": 5283,
      "ĠSort": 5284,
      "ĠSIG": 5285,
      "angular": 5286,
      "mystring": 5287,
      "quanti": 5288,
      "Reference": 5289,
      "excel": 5290,
      "ĠMatch": 5291,
      "ĠCreate": 5292,
      "ĠCustom": 5293,
      "irth": 5294,
      "ffect": 5295,
      "oding": 5296,
      "odbc": 5297,
      "Ġallow": 5298,
      "Conf": 5299,
      "prod": 5300,
      "Ġlinestyle": 5301,
      "argparse": 5302,
      "ĠAccessing": 5303,
      "Ġparagraph": 5304,
      "Ġtimelines": 5305,
      "readline": 5306,
      "Ġmydict": 5307,
      "Ġappear": 5308,
      "ĠBOM": 5309,
      "weight": 5310,
      "period": 5311,
      "bars": 5312,
      "localize": 5313,
      "(*([": 5314,
      "]]]": 5315,
      "mlink": 5316,
      "Ġgrouped": 5317,
      "'}]": 5318,
      "counter": 5319,
      "Ġmatched": 5320,
      "ĠHex": 5321,
      "ĠJson": 5322,
      "ĠGET": 5323,
      "licated": 5324,
      "forms": 5325,
      "bins": 5326,
      "filtered": 5327,
      "Ġshap": 5328,
      "Ġ::-": 5329,
      "build": 5330,
      "2013": 5331,
      "condition": 5332,
      "Ġalgorithm": 5333,
      "Ġprefix": 5334,
      "Ġprecision": 5335,
      "ĠXPath": 5336,
      "whatever": 5337,
      "Ġwebcam": 5338,
      "Ġruntime": 5339,
      "Dialog": 5340,
      "Ġinstances": 5341,
      "Ġlogged": 5342,
      "without": 5343,
      "Ġindent": 5344,
      "Ġtests": 5345,
      "Ġvideo": 5346,
      "ĠSearch": 5347,
      "ghi": 5348,
      "('{:": 5349,
      "MyClass": 5350,
      "PlotLib": 5351,
      "lowercase": 5352,
      "Ġgenerated": 5353,
      "Resh": 5354,
      "Ġscatterplot": 5355,
      "translate": 5356,
      "colorbar": 5357,
      "Ġcalculated": 5358,
      "hexlify": 5359,
      "]*',": 5360,
      "ĠURLs": 5361,
      "Ġshows": 5362,
      "entication": 5363,
      "spec": 5364,
      "cumcount": 5365,
      "merged": 5366,
      "Ġlibraries": 5367,
      "paramiko": 5368,
      "patterns": 5369,
      "Decode": 5370,
      "rcParams": 5371,
      "Ġabout": 5372,
      "Ġverify": 5373,
      "Ġtrace": 5374,
      "ĠFiles": 5375,
      "Ġperformance": 5376,
      "('[^\\\\": 5377,
      "variables": 5378,
      "ĠMatlab": 5379,
      "Intersection": 5380,
      "xxx": 5381,
      "ĠKeys": 5382,
      "ĠModelForm": 5383,
      "Returning": 5384,
      "YYY": 5385,
      "Ġdistinct": 5386,
      "Ġlinks": 5387,
      "success": 5388,
      "normal": 5389,
      "Ġrequired": 5390,
      "Ġweekdays": 5391,
      "Arg": 5392,
      "Implement": 5393,
      "ĠZer": 5394,
      "Ġuppercase": 5395,
      "Ġoccurence": 5396,
      "witter": 5397,
      "ĠIDLE": 5398,
      "ĠBased": 5399,
      "Ġeasy": 5400,
      "Ġrecursive": 5401,
      "ĠSSL": 5402,
      "ymPy": 5403,
      "tokenize": 5404,
      "Ġsuppress": 5405,
      "Importing": 5406,
      "ĠFormat": 5407,
      "ĠColorbar": 5408,
      "corr": 5409,
      "Turning": 5410,
      "ness": 5411,
      "flip": 5412,
      "expanduser": 5413,
      "bability": 5414,
      "Ġescaped": 5415,
      "standing": 5416,
      "Ġscrape": 5417,
      "Ġpercentage": 5418,
      "Strip": 5419,
      "ĠPerl": 5420,
      "Correct": 5421,
      "ĠTensorFlow": 5422,
      "ĠPySpark": 5423,
      "Ġthousands": 5424,
      "Ġmenu": 5425,
      "Ġdeclare": 5426,
      "enticate": 5427,
      "Ġbeautiful": 5428,
      "DOTALL": 5429,
      "rmtree": 5430,
      "stamps": 5431,
      "roadcast": 5432,
      "tesian": 5433,
      "setsockopt": 5434,
      "(%": 5435,
      "*?": 5436,
      "*)',": 5437,
      "+(\\\\": 5438,
      "-')": 5439,
      ".,": 5440,
      "2000": 5441,
      "48": 5442,
      "456": 5443,
      "73": 5444,
      ":]]": 5445,
      "?)',": 5446,
      "Calc": 5447,
      "Dup": 5448,
      "Drop": 5449,
      "ED": 5450,
      "Enter": 5451,
      "GET": 5452,
      "IME": 5453,
      "LY": 5454,
      "Line": 5455,
      "Label": 5456,
      "MY": 5457,
      "Message": 5458,
      "NS": 5459,
      "Of": 5460,
      "Over": 5461,
      "Random": 5462,
      "SMTP": 5463,
      "Ter": 5464,
      "Tensorflow": 5465,
      "UM": 5466,
      "USER": 5467,
      "Vector": 5468,
      "_()": 5469,
      "adecimal": 5470,
      "bs": 5471,
      "bad": 5472,
      "blog": 5473,
      "cl": 5474,
      "cate": 5475,
      "core": 5476,
      "cular": 5477,
      "cry": 5478,
      "clear": 5479,
      "cookies": 5480,
      "classes": 5481,
      "double": 5482,
      "efficient": 5483,
      "fn": 5484,
      "fixed": 5485,
      "freq": 5486,
      "frozenset": 5487,
      "feature": 5488,
      "hy": 5489,
      "hind": 5490,
      "ii": 5491,
      "ks": 5492,
      "known": 5493,
      "mand": 5494,
      "more": 5495,
      "ock": 5496,
      "olic": 5497,
      "pat": 5498,
      "passing": 5499,
      "pboard": 5500,
      "pipe": 5501,
      "rr": 5502,
      "rt": 5503,
      "rup": 5504,
      "solve": 5505,
      "smtp": 5506,
      "tp": 5507,
      "tion": 5508,
      "tornado": 5509,
      "uge": 5510,
      "ude": 5511,
      "uuid": 5512,
      "wer": 5513,
      "yticks": 5514,
      "yticklabels": 5515,
      "ĠQt": 5516,
      "inx": 5517,
      "onous": 5518,
      "stract": 5519,
      "stick": 5520,
      "Ġinf": 5521,
      "Ġinvalid": 5522,
      "Ġinvoke": 5523,
      "erce": 5524,
      "Ġtre": 5525,
      "orter": 5526,
      "orig": 5527,
      "lease": 5528,
      "Ġftp": 5529,
      "Ġcookie": 5530,
      "Ġclasses": 5531,
      "Ġcreation": 5532,
      "Ġdel": 5533,
      "Ġdesc": 5534,
      "Ġpublic": 5535,
      "anted": 5536,
      "arithm": 5537,
      "Ġ'!": 5538,
      "Ġ'#": 5539,
      "Ġ'']": 5540,
      "ctest": 5541,
      "Ġwor": 5542,
      "Ġwarnings": 5543,
      "Ġwrong": 5544,
      "('&": 5545,
      "(';": 5546,
      "('@": 5547,
      "lol": 5548,
      "loy": 5549,
      "()').": 5550,
      "Ġmon": 5551,
      "Ġip": 5552,
      "eng": 5553,
      "Ġna": 5554,
      "Ġnow": 5555,
      "Ġnltk": 5556,
      "demo": 5557,
      "Ġbaz": 5558,
      "Ġbody": 5559,
      "aspect": 5560,
      "asked": 5561,
      "))),": 5562,
      "Ġreset": 5563,
      "Ġreport": 5564,
      "Ġreshape": 5565,
      "Ġredis": 5566,
      "olor": 5567,
      "Ġansw": 5568,
      "anda": 5569,
      "']],": 5570,
      "'])))": 5571,
      "ĠImp": 5572,
      "veraging": 5573,
      "icon": 5574,
      "Ġdistribution": 5575,
      "Ġxy": 5576,
      "Ġxlsx": 5577,
      "Ġ23": 5578,
      "changing": 5579,
      "chrome": 5580,
      "getsize": 5581,
      "Ġarrows": 5582,
      "\\\\\\\\": 5583,
      "Ġconstant": 5584,
      "elery": 5585,
      "ĠdataFrame": 5586,
      "parency": 5587,
      "Ġlow": 5588,
      "ĠPo": 5589,
      "ĠPol": 5590,
      "ĠPrint": 5591,
      "ĠPDF": 5592,
      "ĠPHP": 5593,
      "allow": 5594,
      "cessor": 5595,
      "='')": 5596,
      "__',": 5597,
      "ĠSy": 5598,
      "Ġhuge": 5599,
      "Ġgame": 5600,
      "Ġgit": 5601,
      "Ġexact": 5602,
      "Ġexclu": 5603,
      "amount": 5604,
      "ĠCreating": 5605,
      "people": 5606,
      "tact": 5607,
      "odb": 5608,
      "pread": 5609,
      "ĠNotebook": 5610,
      "())])": 5611,
      "Ġsubdirect": 5612,
      "Ġsubject": 5613,
      "Ġsubtract": 5614,
      "Ġscore": 5615,
      "Ġwhy": 5616,
      "ĠFunction": 5617,
      "ĠFirefox": 5618,
      "Context": 5619,
      "prove": 5620,
      "processes": 5621,
      "ĠAl": 5622,
      "ĠAssign": 5623,
      "ĠAverage": 5624,
      "Ġprocesses": 5625,
      "Ġprojection": 5626,
      "ĠTwo": 5627,
      "ĠTCP": 5628,
      "ĠDatabase": 5629,
      "mapping": 5630,
      "ometry": 5631,
      "().__": 5632,
      "Ġmystring": 5633,
      "Ġjump": 5634,
      "php": 5635,
      "phen": 5636,
      "testing": 5637,
      "101": 5638,
      "perature": 5639,
      "(*[": 5640,
      "(*[(": 5641,
      "Ġ{}\"\"\".": 5642,
      "ĠWidget": 5643,
      "Ġcheckbox": 5644,
      "SOL": 5645,
      "ĠJo": 5646,
      "ĠOf": 5647,
      "PyS": 5648,
      "ived": 5649,
      "ĠRet": 5650,
      "Ġchanged": 5651,
      "fromstring": 5652,
      "columnconfigure": 5653,
      "addr": 5654,
      "Ġshape": 5655,
      "ĠRemoving": 5656,
      "extra": 5657,
      "while": 5658,
      "company": 5659,
      "Ġarea": 5660,
      "Ġrandomize": 5661,
      "AddPo": 5662,
      "ongodb": 5663,
      "Ġfilters": 5664,
      "policy": 5665,
      "attrgetter": 5666,
      "INE": 5667,
      "Ġgradient": 5668,
      "ĠPyQT": 5669,
      "(','.": 5670,
      "dummies": 5671,
      "access": 5672,
      "accumulate": 5673,
      "Ġextracting": 5674,
      "Ġnamespaces": 5675,
      "cool": 5676,
      "cvtColor": 5677,
      "abcdef": 5678,
      "ĠQPushButton": 5679,
      "install": 5680,
      "images": 5681,
      "colors": 5682,
      "Ġcalling": 5683,
      "Ġcorrelation": 5684,
      "sqlalchemy": 5685,
      "Ġshowing": 5686,
      "entifier": 5687,
      "TEXT": 5688,
      "andlers": 5689,
      "Ġexcept": 5690,
      "Ġbytearray": 5691,
      "Ġoperation": 5692,
      "Grouper": 5693,
      "]+\\\\": 5694,
      "background": 5695,
      "cents": 5696,
      "used": 5697,
      "Ġimplementation": 5698,
      "6666": 5699,
      "ternative": 5700,
      "defined": 5701,
      "CON": 5702,
      "Ġnamedtuple": 5703,
      "Ġmanager": 5704,
      "winx": 5705,
      "Ġsentences": 5706,
      "Subset": 5707,
      "document": 5708,
      "([^\\\\": 5709,
      "chronous": 5710,
      "Ġscreenshot": 5711,
      "wxpython": 5712,
      "ĠMatPlotLib": 5713,
      "Ġpackages": 5714,
      "Disable": 5715,
      "Ġexceptions": 5716,
      "greSQL": 5717,
      "Ġphone": 5718,
      "ĠWebDriver": 5719,
      "Ġalphabet": 5720,
      "ormalizing": 5721,
      "...,": 5722,
      "Iterating": 5723,
      "height": 5724,
      "Ġincreasing": 5725,
      "sheets": 5726,
      "Moving": 5727,
      "hashlib": 5728,
      "Ġvalidation": 5729,
      "Customize": 5730,
      "Seri": 5731,
      "Ġpopulate": 5732,
      "utcfromtimestamp": 5733,
      "Ġprimary": 5734,
      "plications": 5735,
      "Matching": 5736,
      "escriptor": 5737,
      "Ġadditional": 5738,
      "ramid": 5739,
      "Ġpixels": 5740,
      "Player": 5741,
      "Concaten": 5742,
      "AutoAddPo": 5743,
      "ĠQuerySet": 5744,
      "rosstab": 5745,
      "Ġembedded": 5746,
      "Ġcomparator": 5747,
      "Ġcomparison": 5748,
      "ĠLIST": 5749,
      "ĠLIKE": 5750,
      "Ġperiods": 5751,
      "bytearray": 5752,
      "1234567890": 5753,
      "Ġquickly": 5754,
      "Ġconsist": 5755,
      "Ġtempor": 5756,
      "reference": 5757,
      "plicitly": 5758,
      "Divide": 5759,
      "ĠDuplicates": 5760,
      "ĠResponse": 5761,
      "Ġminutes": 5762,
      "Ġaggregate": 5763,
      "Specify": 5764,
      "Ġsince": 5765,
      "NFKD": 5766,
      "records": 5767,
      "Ġvirtualenv": 5768,
      "builtins": 5769,
      "Relative": 5770,
      "networkx": 5771,
      "Ġavailable": 5772,
      "Ġvarious": 5773,
      "ĠSIGINT": 5774,
      "Implementing": 5775,
      "Calcuate": 5776,
      "Ġanswer": 5777,
      "Ġsubdirectories": 5778,
      "AutoAddPolicy": 5779,
      "\").": 5780,
      "'\")": 5781,
      "(_": 5782,
      "){": 5783,
      ")['": 5784,
      ")(\\\\": 5785,
      "+?": 5786,
      "-',": 5787,
      "300": 5788,
      "43": 5789,
      "72": 5790,
      "91": 5791,
      ">[^": 5792,
      "AF": 5793,
      "Attribute": 5794,
      "App": 5795,
      "AUT": 5796,
      "Big": 5797,
      "Blog": 5798,
      "Code": 5799,
      "EN": 5800,
      "Esc": 5801,
      "EST": 5802,
      "Firefox": 5803,
      "GT": 5804,
      "He": 5805,
      "HOST": 5806,
      "ITEM": 5807,
      "Keep": 5808,
      "Loc": 5809,
      "MT": 5810,
      "NE": 5811,
      "RS": 5812,
      "Scatter": 5813,
      "Tag": 5814,
      "Trouble": 5815,
      "USE": 5816,
      "ULT": 5817,
      "We": 5818,
      "]'": 5819,
      "]').": 5820,
      "alist": 5821,
      "average": 5822,
      "ailed": 5823,
      "aemon": 5824,
      "best": 5825,
      "blob": 5826,
      "beautiful": 5827,
      "bits": 5828,
      "banana": 5829,
      "between": 5830,
      "clo": 5831,
      "cos": 5832,
      "come": 5833,
      "curl": 5834,
      "cmp": 5835,
      "center": 5836,
      "dc": 5837,
      "dar": 5838,
      "dll": 5839,
      "ef": 5840,
      "eq": 5841,
      "elem": 5842,
      "fp": 5843,
      "fresh": 5844,
      "fmt": 5845,
      "gd": 5846,
      "gz": 5847,
      "gain": 5848,
      "good": 5849,
      "grp": 5850,
      "guous": 5851,
      "hat": 5852,
      "hou": 5853,
      "ham": 5854,
      "jar": 5855,
      "lli": 5856,
      "large": 5857,
      "mc": 5858,
      "mv": 5859,
      "mer": 5860,
      "mplot": 5861,
      "mdates": 5862,
      "nse": 5863,
      "nested": 5864,
      "pr": 5865,
      "pct": 5866,
      "pot": 5867,
      "rg": 5868,
      "sk": 5869,
      "spli": 5870,
      "tar": 5871,
      "tom": 5872,
      "ttify": 5873,
      "ula": 5874,
      "uzz": 5875,
      "vf": 5876,
      "vate": 5877,
      "xff": 5878,
      "xbb": 5879,
      "ycle": 5880,
      "zy": 5881,
      "zlabel": 5882,
      "|[": 5883,
      "}{": 5884,
      "inue": 5885,
      "inary": 5886,
      "incre": 5887,
      "Ġagain": 5888,
      "Ġinverse": 5889,
      "Ġinfo": 5890,
      "Ġincluding": 5891,
      "Ġtornado": 5892,
      "Ġtwinx": 5893,
      "Ġfra": 5894,
      "Ġfall": 5895,
      "Ġfmt": 5896,
      "Ġfinish": 5897,
      "Ġtoo": 5898,
      "Ġtotal": 5899,
      "Ġcar": 5900,
      "Ġcss": 5901,
      "Ġcop": 5902,
      "Ġcatch": 5903,
      "Ġcalled": 5904,
      "mes": 5905,
      "Ġdone": 5906,
      "Ġdaemon": 5907,
      "Ġpassing": 5908,
      "Ġpivot": 5909,
      "arn": 5910,
      "Ġ'(": 5911,
      "Ġ'').": 5912,
      "Ġ'*',": 5913,
      "ctime": 5914,
      "Ġwon": 5915,
      "loaded": 5916,
      "'):": 5917,
      "')],": 5918,
      "geometry": 5919,
      "ency": 5920,
      "Ġnodes": 5921,
      "tiguous": 5922,
      "Ġbatch": 5923,
      "Ġbasic": 5924,
      "asyn": 5925,
      "Ġrestr": 5926,
      "Ġrefer": 5927,
      "olation": 5928,
      "ough": 5929,
      "']),": 5930,
      "[''.": 5931,
      "intain": 5932,
      "rompt": 5933,
      "Ġdia": 5934,
      "Ġxpath": 5935,
      "Ġ27": 5936,
      "chor": 5937,
      "getlist": 5938,
      "getpid": 5939,
      "under": 5940,
      "utting": 5941,
      "utdown": 5942,
      "Ġ(%": 5943,
      "Ġ(?,": 5944,
      "Ġonline": 5945,
      "Ġ[([": 5946,
      "])[": 5947,
      "])\\\\": 5948,
      "])[:,": 5949,
      "Ġconv": 5950,
      "Ġconson": 5951,
      "difference": 5952,
      "else": 5953,
      "timeIndex": 5954,
      "Ġchain": 5955,
      "ersist": 5956,
      "illed": 5957,
      "ĠDB": 5958,
      "ets": 5959,
      "etter": 5960,
      "Ġsent": 5961,
      "Ġsection": 5962,
      "001": 5963,
      "Ġylim": 5964,
      "='/": 5965,
      "__['": 5966,
      "ĠSE": 5967,
      "ĠSave": 5968,
      "ĠSymPy": 5969,
      "ots": 5970,
      "Ġhue": 5971,
      "Ġhour": 5972,
      "Ġhours": 5973,
      "Ġgzip": 5974,
      "myapp": 5975,
      "quar": 5976,
      "quick": 5977,
      "Represent": 5978,
      "idom": 5979,
      "force": 5980,
      "nput": 5981,
      "imate": 5982,
      "imread": 5983,
      "except": 5984,
      "osite": 5985,
      "Ġexpon": 5986,
      "Ġexplo": 5987,
      "Ġcomment": 5988,
      "irror": 5989,
      "Ġlogger": 5990,
      "acter": 5991,
      "activ": 5992,
      "ĠNew": 5993,
      "ĠNetwork": 5994,
      "ĠNLTK": 5995,
      "Ġ48": 5996,
      "Ġscope": 5997,
      "ĠFace": 5998,
      "submit": 5999,
      "Ġunix": 6000,
      "imezone": 6001,
      "ĠAWS": 6002,
      "ĠAjax": 6003,
      "ĠTest": 6004,
      "ĠTag": 6005,
      "ĠTitle": 6006,
      "ĠThe": 6007,
      "collect": 6008,
      "collection": 6009,
      "ĠLatex": 6010,
      "Ġtexts": 6011,
      "Ġkw": 6012,
      "share": 6013,
      "Ġmathematical": 6014,
      "formatted": 6015,
      "Ġenter": 6016,
      "Ġtimestamps": 6017,
      "ĠmyDict": 6018,
      "Ġappro": 6019,
      "Ġapplications": 6020,
      "ources": 6021,
      "phone": 6022,
      "ĠBo": 6023,
      "Ġpointer": 6024,
      "interpolate": 6025,
      "ĠError": 6026,
      "ĠElli": 6027,
      "iving": 6028,
      "minor": 6029,
      "(*(": 6030,
      "Ġ{(": 6031,
      "Ġ{},": 6032,
      "blem": 6033,
      "Ġstrs": 6034,
      "Ġgrouping": 6035,
      "aster": 6036,
      "astimezone": 6037,
      "ache": 6038,
      "(?<": 6039,
      "Choo": 6040,
      "Child": 6041,
      "answer": 6042,
      "Ġscripts": 6043,
      "ĠGen": 6044,
      "ĠOn": 6045,
      "ĠOutput": 6046,
      "('\\\\[": 6047,
      "Ġreadable": 6048,
      "Ġopening": 6049,
      "bination": 6050,
      "loadtxt": 6051,
      "limits": 6052,
      "Ġshift": 6053,
      "Ġshared": 6054,
      "startfile": 6055,
      "})'.": 6056,
      "Ġ80": 6057,
      "Ġ86": 6058,
      "assign": 6059,
      "Ġpreserving": 6060,
      "white": 6061,
      "httpbin": 6062,
      "Ġjsonify": 6063,
      "...')": 6064,
      "Ġgener": 6065,
      "('[\\": 6066,
      "ticles": 6067,
      "Ġfiltering": 6068,
      "Ġinterval": 6069,
      "Ġinterface": 6070,
      "Ġintersect": 6071,
      "Ġlogical": 6072,
      "latform": 6073,
      "Ġindic": 6074,
      "dummy": 6075,
      "Ġurls": 6076,
      "Ġimports": 6077,
      "][\\\\": 6078,
      "Ġconditionally": 6079,
      "ticker": 6080,
      "Determine": 6081,
      "('.')[": 6082,
      "itect": 6083,
      "Ġlittle": 6084,
      "coords": 6085,
      "coerce": 6086,
      "Ġcustomize": 6087,
      "('{\"": 6088,
      "ATION": 6089,
      "StringIO": 6090,
      "ĠUnix": 6091,
      "matches": 6092,
      "Ġ'-'": 6093,
      "ĠDirectory": 6094,
      "Result": 6095,
      "Resizing": 6096,
      "0438": 6097,
      "area": 6098,
      "selector": 6099,
      "Program": 6100,
      "Application": 6101,
      "Ġexecutable": 6102,
      "Ġsending": 6103,
      "choices": 6104,
      "gnit": 6105,
      "ĠYYYY": 6106,
      "ModelForm": 6107,
      "alidation": 6108,
      "3333": 6109,
      "Storing": 6110,
      "Unable": 6111,
      "avig": 6112,
      "Ġjoining": 6113,
      "TimeGrouper": 6114,
      "ĠNaNs": 6115,
      "Ġsignific": 6116,
      "ABLE": 6117,
      "Ġglobals": 6118,
      "ORM": 6119,
      "ORT": 6120,
      "ntence": 6121,
      "Ġboxplots": 6122,
      "Ġsubsets": 6123,
      "eatures": 6124,
      "unicodedata": 6125,
      "Ġviews": 6126,
      "Ġyears": 6127,
      "multiply": 6128,
      "\\\\.\\\\": 6129,
      "Scrapy": 6130,
      "Subtract": 6131,
      "assertTrue": 6132,
      "Ġignoring": 6133,
      "Ġcomputer": 6134,
      "Ġversions": 6135,
      "links": 6136,
      "unicorn": 6137,
      "('(?<!": 6138,
      "OpenCV": 6139,
      "SIGINT": 6140,
      "Upload": 6141,
      "Ġincrement": 6142,
      "qrst": 6143,
      "Ġwhitespaces": 6144,
      "sudo": 6145,
      "yyy": 6146,
      "utcnow": 6147,
      "ĠPlotting": 6148,
      "Transform": 6149,
      "sync": 6150,
      "Dynamic": 6151,
      "reversed": 6152,
      "ategories": 6153,
      "antomjs": 6154,
      "Ġdocuments": 6155,
      "Ġfaster": 6156,
      "Ġeasiest": 6157,
      "Ġrecursion": 6158,
      "DOW": 6159,
      "aware": 6160,
      "ĠSetting": 6161,
      "........": 6162,
      "Ġrepetitions": 6163,
      "uniform": 6164,
      "Ġhyphen": 6165,
      "Displaying": 6166,
      "FILES": 6167,
      "NORE": 6168,
      "customer": 6169,
      "fetchall": 6170,
      "makedirs": 6171,
      "Ġheight": 6172,
      "Ġalternating": 6173,
      "Status": 6174,
      "Documents": 6175,
      "initialize": 6176,
      "Ġsizes": 6177,
      "Ġsizers": 6178,
      "ĠManyToMany": 6179,
      "Control": 6180,
      "MainWindow": 6181,
      "Template": 6182,
      "ĠINSERT": 6183,
      "ĠUpdate": 6184,
      "SOCKET": 6185,
      "ĠMean": 6186,
      "Initializing": 6187,
      "Rotating": 6188,
      "breaks": 6189,
      "gresql": 6190,
      "square": 6191,
      "('((\\\\": 6192,
      "Ġtruncate": 6193,
      "mediate": 6194,
      "aneous": 6195,
      "Ġcomponents": 6196,
      "Ġbehavior": 6197,
      "Axis": 6198,
      "Build": 6199,
      "META": 6200,
      "Second": 6201,
      "members": 6202,
      "amelCase": 6203,
      "Ġgrayscale": 6204,
      "Ġsprites": 6205,
      "Ġcertificate": 6206,
      "Ġbelongs": 6207,
      "Ġtakes": 6208,
      "olume": 6209,
      "Ġsegments": 6210,
      "Confusing": 6211,
      "Ġtraceback": 6212,
      "MessageBox": 6213,
      "PySide": 6214,
      "Concatenating": 6215,
      "splitext": 6216,
      "Ġcopies": 6217,
      "Secondary": 6218,
      "!',": 6219,
      "\"}": 6220,
      "\"'.": 6221,
      "\"[^\"]*": 6222,
      "'?": 6223,
      "(~": 6224,
      ")()": 6225,
      ")})": 6226,
      ")(?=": 6227,
      "+[": 6228,
      "+$',": 6229,
      ".'": 6230,
      "/(\\\\": 6231,
      "016": 6232,
      "58": 6233,
      "63": 6234,
      ":/": 6235,
      ":')": 6236,
      "::-": 6237,
      "@',": 6238,
      "Ad": 6239,
      "Ali": 6240,
      "Average": 6241,
      "BO": 6242,
      "Bo": 6243,
      "Base": 6244,
      "Basic": 6245,
      "Cookie": 6246,
      "CASE": 6247,
      "Ctrl": 6248,
      "Eu": 6249,
      "ENT": 6250,
      "Func": 6251,
      "Grid": 6252,
      "Given": 6253,
      "Int": 6254,
      "Link": 6255,
      "Ma": 6256,
      "Mod": 6257,
      "Missing": 6258,
      "Menu": 6259,
      "Na": 6260,
      "Non": 6261,
      "NAL": 6262,
      "Need": 6263,
      "NLTK": 6264,
      "Option": 6265,
      "Pri": 6266,
      "Person": 6267,
      "SD": 6268,
      "Sw": 6269,
      "Size": 6270,
      "Sty": 6271,
      "Tk": 6272,
      "THO": 6273,
      "UR": 6274,
      "Variable": 6275,
      "When": 6276,
      "World": 6277,
      "WAR": 6278,
      "XY": 6279,
      "Yes": 6280,
      "You": 6281,
      "YPE": 6282,
      "YTHO": 6283,
      "_{}'.": 6284,
      "amo": 6285,
      "after": 6286,
      "aws": 6287,
      "ba": 6288,
      "but": 6289,
      "btn": 6290,
      "cies": 6291,
      "cnx": 6292,
      "epy": 6293,
      "equ": 6294,
      "even": 6295,
      "fe": 6296,
      "four": 6297,
      "false": 6298,
      "factor": 6299,
      "focus": 6300,
      "fcntl": 6301,
      "gs": 6302,
      "gEx": 6303,
      "hand": 6304,
      "hot": 6305,
      "hour": 6306,
      "handlers": 6307,
      "ike": 6308,
      "lder": 6309,
      "language": 6310,
      "mul": 6311,
      "rf": 6312,
      "rs": 6313,
      "rate": 6314,
      "sig": 6315,
      "tst": 6316,
      "wanted": 6317,
      "xes": 6318,
      "yesterday": 6319,
      "|[^": 6320,
      "}$": 6321,
      "}'": 6322,
      "}/": 6323,
      "Ġ?": 6324,
      "Ġraise": 6325,
      "ĠQtGui": 6326,
      "Ġ?',": 6327,
      "Ġabb": 6328,
      "Ġaudio": 6329,
      "thost": 6330,
      "stra": 6331,
      "atic": 6332,
      "Ġtabs": 6333,
      "Ġtensor": 6334,
      "Ġtaking": 6335,
      "Ġtwisted": 6336,
      "Ġtensorflow": 6337,
      "ores": 6338,
      "leans": 6339,
      "Ġfinal": 6340,
      "Ġflag": 6341,
      "Ġfocus": 6342,
      "Ġfuzz": 6343,
      "revi": 6344,
      "report": 6345,
      "live": 6346,
      "lize": 6347,
      "Ġtool": 6348,
      "Ġcrop": 6349,
      "Ġcross": 6350,
      "Ġdum": 6351,
      "Ġdra": 6352,
      "Ġdescriptor": 6353,
      "Ġpip": 6354,
      "Ġpng": 6355,
      "Ġplatform": 6356,
      "sel": 6357,
      "sequence": 6358,
      "sentence": 6359,
      "Ġ'\"": 6360,
      "Ġ''": 6361,
      "Ġwarning": 6362,
      "('~": 6363,
      "alf": 6364,
      "rot": 6365,
      "rope": 6366,
      "Ġsure": 6367,
      "Ġsaf": 6368,
      "Ġsized": 6369,
      "Ġswitch": 6370,
      "team": 6371,
      "')}": 6372,
      "')),": 6373,
      "gevent": 6374,
      "gethost": 6375,
      "racle": 6376,
      "Ġmplot": 6377,
      "Ġmod": 6378,
      "Ġmix": 6379,
      "Ġmerging": 6380,
      "Ġmongodb": 6381,
      "Ġicon": 6382,
      "Ġipython": 6383,
      "ences": 6384,
      "entical": 6385,
      "Ġnative": 6386,
      "Ġnotebook": 6387,
      "deb": 6388,
      "depend": 6389,
      "asd": 6390,
      "))).": 6391,
      "Ġei": 6392,
      "Ġegg": 6393,
      "Ġelev": 6394,
      "Ġeffect": 6395,
      "Ġrec": 6396,
      "terals": 6397,
      "Ġangle": 6398,
      "ueue": 6399,
      "omial": 6400,
      "Ġdisc": 6401,
      "Ġxlim": 6402,
      "Ġxticks": 6403,
      "Ġ26": 6404,
      "Ġ28": 6405,
      "apl": 6406,
      "apq": 6407,
      "isfile": 6408,
      "cha": 6409,
      "chie": 6410,
      "ursive": 6411,
      "italize": 6412,
      "unsorted": 6413,
      "unravel": 6414,
      "utor": 6415,
      "Ġ[])": 6416,
      "])])": 6417,
      "Ġcolon": 6418,
      "ecolor": 6419,
      "pag": 6420,
      "Ġlatex": 6421,
      "ĠDLL": 6422,
      "etail": 6423,
      "([-": 6424,
      "([_": 6425,
      "ĠPri": 6426,
      "ĠPopen": 6427,
      "making": 6428,
      "allclose": 6429,
      "ednes": 6430,
      "='*')": 6431,
      "oost": 6432,
      "ĠSum": 6433,
      "ĠSame": 6434,
      "ĠSocket": 6435,
      "ĠSession": 6436,
      "ĠSqlAlchemy": 6437,
      "Ġcannot": 6438,
      "otion": 6439,
      "Ġhello": 6440,
      "Ġhatch": 6441,
      "Ġhaving": 6442,
      "Ġgive": 6443,
      "Ġgaps": 6444,
      "mystr": 6445,
      "conda": 6446,
      "constant": 6447,
      "mbol": 6448,
      "formed": 6449,
      "Ġways": 6450,
      "imize": 6451,
      "imwrite": 6452,
      "plain": 6453,
      "paralle": 6454,
      "parsers": 6455,
      "Ġexe": 6456,
      "ĠMax": 6457,
      "istance": 6458,
      "ĠCap": 6459,
      "ĠClass": 6460,
      "ĠCont": 6461,
      "pears": 6462,
      "take": 6463,
      "Ġlove": 6464,
      "pres": 6465,
      "ĠNo": 6466,
      "ĠNot": 6467,
      "ĠNULL": 6468,
      "resses": 6469,
      "splitting": 6470,
      "bye": 6471,
      "ĠFoo": 6472,
      "ĠFTP": 6473,
      "Construct": 6474,
      "Ġuneven": 6475,
      "argmin": 6476,
      "argwhere": 6477,
      "ĠAttribute": 6478,
      "Ġprobability": 6479,
      "ĠTornado": 6480,
      "Ġmach": 6481,
      "Ġendian": 6482,
      "Ġindexed": 6483,
      "Ġless": 6484,
      "Ġleaving": 6485,
      "Ġmesh": 6486,
      "(((": 6487,
      "Ġformats": 6488,
      "phra": 6489,
      "ĠBig": 6490,
      "urljoin": 6491,
      "urlpatterns": 6492,
      "minute": 6493,
      "Ġ{})": 6494,
      "blems": 6495,
      "ĠWord": 6496,
      "ĠWindow": 6497,
      "linear": 6498,
      "])).": 6499,
      "ĠHistogram": 6500,
      "executable": 6501,
      "Ġweigh": 6502,
      "ĠGraph": 6503,
      "('\\\\$": 6504,
      "('\\\\',": 6505,
      "('\\\\\\\\": 6506,
      "apps": 6507,
      "Ġqui": 6508,
      "Ġquit": 6509,
      "applying": 6510,
      "Ġserve": 6511,
      "Ġserial": 6512,
      "Ġspacing": 6513,
      "ĠReport": 6514,
      "ĠRegEx": 6515,
      "Ġ:],": 6516,
      "bus": 6517,
      "buntu": 6518,
      "Ġ'.'": 6519,
      "Ġ'.')": 6520,
      "earth": 6521,
      "Ġ>>": 6522,
      "encoded": 6523,
      "elling": 6524,
      "Ġaccessing": 6525,
      "Ġpyparsing": 6526,
      "Ġpymongo": 6527,
      "Ġpyodbc": 6528,
      "gender": 6529,
      "somelist": 6530,
      "cio": 6531,
      "Ġalso": 6532,
      "Ġdecoding": 6533,
      "Ġselecting": 6534,
      "Ġ','.": 6535,
      "Ġinputs": 6536,
      "basename": 6537,
      "vie": 6538,
      "chema": 6539,
      "posed": 6540,
      "('/')[": 6541,
      "INES": 6542,
      "INTER": 6543,
      "oft": 6544,
      "Season": 6545,
      "ĠPyM": 6546,
      "levels": 6547,
      "ĠSelect": 6548,
      "Ġminidom": 6549,
      "Ġequation": 6550,
      "Ġbackward": 6551,
      "Default": 6552,
      "('.',": 6553,
      "0001": 6554,
      "Ġsaved": 6555,
      "Ġsavefig": 6556,
      "Ġsavepoints": 6557,
      "Alternative": 6558,
      "ĠUnique": 6559,
      "Ġprograms": 6560,
      "Ġends": 6561,
      "Ġending": 6562,
      "044": 6563,
      "999": 6564,
      "Profile": 6565,
      "DEF": 6566,
      "need": 6567,
      "Ġfolders": 6568,
      "('(?=": 6569,
      "Ġdatabases": 6570,
      "DateFormatter": 6571,
      "hexdigest": 6572,
      "Ġidentical": 6573,
      "\"\"\"{:.": 6574,
      "virt": 6575,
      "Ġdelimited": 6576,
      "entity": 6577,
      "boxplot": 6578,
      "Ġtransparent": 6579,
      "Stream": 6580,
      "Unpack": 6581,
      "poly": 6582,
      "track": 6583,
      "Ġstarts": 6584,
      "CTION": 6585,
      "Ġpositions": 6586,
      "ĠCherryPy": 6587,
      "ILINE": 6588,
      "inspect": 6589,
      "IGNORE": 6590,
      "IOLoop": 6591,
      "defaultdict": 6592,
      "pio": 6593,
      "ĠArrays": 6594,
      "Ġsockets": 6595,
      "SERVER": 6596,
      "sendmail": 6597,
      "models": 6598,
      "alphanumeric": 6599,
      "ĠFileField": 6600,
      "Ġrepresenting": 6601,
      "Joining": 6602,
      "related": 6603,
      "Ġcompute": 6604,
      "changed": 6605,
      "ValueError": 6606,
      "Ġraster": 6607,
      "Ġfullscreen": 6608,
      "=',',": 6609,
      "Possible": 6610,
      "swit": 6611,
      "(':',": 6612,
      "(':')": 6613,
      "Opening": 6614,
      "wsgi": 6615,
      "Ġports": 6616,
      "Ġsmallest": 6617,
      "Ġinitialization": 6618,
      "('\"',": 6619,
      "(**{'": 6620,
      "Modify": 6621,
      "messages": 6622,
      "1000000": 6623,
      "tensions": 6624,
      "Ġoverlap": 6625,
      "latex": 6626,
      "Ġdepending": 6627,
      "Ġsymbolic": 6628,
      "(?!\\\\": 6629,
      "cells": 6630,
      "ĠProcess": 6631,
      "ification": 6632,
      "termining": 6633,
      "Doing": 6634,
      "Does": 6635,
      "Method": 6636,
      "Ġcapitalized": 6637,
      "('(?<=\\\\": 6638,
      "ĠLaTe": 6639,
      "weekday": 6640,
      "weekdays": 6641,
      "ĠNumbers": 6642,
      "ĠExpressions": 6643,
      "lusters": 6644,
      "menu": 6645,
      "XXX": 6646,
      "Ġslices": 6647,
      "isoformat": 6648,
      "ĠScipy": 6649,
      "ĠSciPy": 6650,
      "Ġalternative": 6651,
      "Static": 6652,
      "Redu": 6653,
      "blocking": 6654,
      "Easy": 6655,
      "Easiest": 6656,
      "Temperature": 6657,
      "ygwin": 6658,
      "Ġpressed": 6659,
      "Ġmillion": 6660,
      "ĠServer": 6661,
      "Ġshortest": 6662,
      "Ġinherited": 6663,
      "Multiplying": 6664,
      "cleaned": 6665,
      "Ġsubstitutions": 6666,
      "eggs": 6667,
      "Ġdatat": 6668,
      "Ġsympy": 6669,
      "Retrieving": 6670,
      "('=')": 6671,
      "Ġxlwt": 6672,
      "ĠSVG": 6673,
      "DATA": 6674,
      "marizing": 6675,
      "required": 6676,
      "Ġarchitect": 6677,
      "Ġshapes": 6678,
      "Duplicate": 6679,
      "Ġtreat": 6680,
      "arithmic": 6681,
      "english": 6682,
      "Ġlowest": 6683,
      "Ġexclusive": 6684,
      "ĠReturn": 6685,
      "Ġtemporary": 6686,
      "AUTH": 6687,
      "Escape": 6688,
      "largest": 6689,
      "Representing": 6690,
      "Ġkwargs": 6691,
      "Choosing": 6692,
      "alidationError": 6693,
      "Ġsignificant": 6694,
      "Europe": 6695,
      "WARN": 6696,
      "YTHON": 6697,
      "Ġabbrevi": 6698,
      "Ġfuzzy": 6699,
      "Ġsafely": 6700,
      "chieve": 6701,
      "IGNORECASE": 6702,
      "ĠLaTeX": 6703,
      "\".": 6704,
      "\"]')": 6705,
      "$\\\\": 6706,
      "'[::-": 6707,
      "(([": 6708,
      "+(": 6709,
      "+?)": 6710,
      ",.": 6711,
      "-)": 6712,
      "/*": 6713,
      "032": 6714,
      "500": 6715,
      "68": 6716,
      "69": 6717,
      "634": 6718,
      "70": 6719,
      "71": 6720,
      "79": 6721,
      "98": 6722,
      ":>": 6723,
      "<>": 6724,
      "=\\\\": 6725,
      "></": 6726,
      "AV": 6727,
      "At": 6728,
      "And": 6729,
      "ARE": 6730,
      "Automatically": 6731,
      "Arab": 6732,
      "Break": 6733,
      "Brand": 6734,
      "Bob": 6735,
      "CA": 6736,
      "CL": 6737,
      "CR": 6738,
      "Cli": 6739,
      "Category": 6740,
      "DA": 6741,
      "DJ": 6742,
      "Double": 6743,
      "Event": 6744,
      "Fix": 6745,
      "GC": 6746,
      "Input": 6747,
      "LD": 6748,
      "LS": 6749,
      "MP": 6750,
      "Mt": 6751,
      "Mix": 6752,
      "Month": 6753,
      "Mail": 6754,
      "MAP": 6755,
      "MULT": 6756,
      "Network": 6757,
      "NULL": 6758,
      "Org": 6759,
      "PT": 6760,
      "Pick": 6761,
      "Pipe": 6762,
      "PNG": 6763,
      "Putting": 6764,
      "QMainWindow": 6765,
      "RA": 6766,
      "RF": 6767,
      "Ren": 6768,
      "Round": 6769,
      "Sm": 6770,
      "Single": 6771,
      "Slice": 6772,
      "Session": 6773,
      "Tuple": 6774,
      "Task": 6775,
      "TIME": 6776,
      "TYPE": 6777,
      "With": 6778,
      "WOR": 6779,
      "[{": 6780,
      "^\\\\": 6781,
      "_(": 6782,
      "_.": 6783,
      "_([": 6784,
      "aT": 6785,
      "aapl": 6786,
      "bat": 6787,
      "bined": 6788,
      "bird": 6789,
      "bids": 6790,
      "birth": 6791,
      "cut": 6792,
      "clf": 6793,
      "cave": 6794,
      "centi": 6795,
      "crosstab": 6796,
      "categories": 6797,
      "dom": 6798,
      "desc": 6799,
      "dstack": 6800,
      "eg": 6801,
      "eople": 6802,
      "fi": 6803,
      "fat": 6804,
      "fut": 6805,
      "fgg": 6806,
      "firefox": 6807,
      "flags": 6808,
      "fining": 6809,
      "friend": 6810,
      "gc": 6811,
      "gzip": 6812,
      "gning": 6813,
      "ho": 6814,
      "hdf": 6815,
      "ima": 6816,
      "jet": 6817,
      "java": 6818,
      "km": 6819,
      "kins": 6820,
      "ler": 6821,
      "mgrid": 6822,
      "ni": 6823,
      "ners": 6824,
      "nodes": 6825,
      "nlargest": 6826,
      "oom": 6827,
      "oid": 6828,
      "oice": 6829,
      "pse": 6830,
      "pipeline": 6831,
      "rat": 6832,
      "rfind": 6833,
      "sa": 6834,
      "sf": 6835,
      "sup": 6836,
      "sur": 6837,
      "sun": 6838,
      "sparse": 6839,
      "tle": 6840,
      "tab": 6841,
      "twe": 6842,
      "turing": 6843,
      "twitter": 6844,
      "uf": 6845,
      "ux": 6846,
      "utem": 6847,
      "vw": 6848,
      "vil": 6849,
      "warn": 6850,
      "yscale": 6851,
      "yellow": 6852,
      "|(": 6853,
      "}:": 6854,
      "}).": 6855,
      "ãĥ": 6856,
      "Ġ}": 6857,
      "ĠâĢ": 6858,
      "ĠQtCore": 6859,
      "Ġlots": 6860,
      "inplace": 6861,
      "ongest": 6862,
      "Ġalist": 6863,
      "Ġable": 6864,
      "Ġabo": 6865,
      "Ġagent": 6866,
      "Ġaveraging": 6867,
      "sta": 6868,
      "ste": 6869,
      "stret": 6870,
      "Ġinsensitive": 6871,
      "eras": 6872,
      "atform": 6873,
      "atty": 6874,
      "atives": 6875,
      "Ġts": 6876,
      "ority": 6877,
      "least": 6878,
      "Ġfabric": 6879,
      "Ġfrozenset": 6880,
      "Ġfeatures": 6881,
      "reload": 6882,
      "retrieve": 6883,
      "Ġtoday": 6884,
      "Ġcat": 6885,
      "Ġcmp": 6886,
      "Ġcast": 6887,
      "melt": 6888,
      "Ġpract": 6889,
      "anel": 6890,
      "anci": 6891,
      "anizing": 6892,
      "annel": 6893,
      "sence": 6894,
      "Ġ'[": 6895,
      "Ġopt": 6896,
      "Ġoptim": 6897,
      "Ġolder": 6898,
      "ctiv": 6899,
      "Ġwav": 6900,
      "('+": 6901,
      "('?": 6902,
      "ala": 6903,
      "aling": 6904,
      "roken": 6905,
      "Ġslow": 6906,
      "Ġslug": 6907,
      "Ġspeed": 6908,
      "Ġspread": 6909,
      "Ġsoft": 6910,
      "tex": 6911,
      "')(": 6912,
      "')})": 6913,
      "()[-": 6914,
      "rain": 6915,
      "raday": 6916,
      "Ġmis": 6917,
      "Ġmay": 6918,
      "esign": 6919,
      "Ġidi": 6920,
      "enkins": 6921,
      "Ġthings": 6922,
      "strs": 6923,
      "stride": 6924,
      "Ġnic": 6925,
      "Ġnormalize": 6926,
      "deep": 6927,
      "atest": 6928,
      "Ġbad": 6929,
      "Ġbottom": 6930,
      "Ġbottle": 6931,
      "Ġbulk": 6932,
      "Ġvers": 6933,
      "Ġvice": 6934,
      "))',": 6935,
      "Ġrev": 6936,
      "Ġrestart": 6937,
      "Ġupon": 6938,
      "oute": 6939,
      "']})": 6940,
      "['_": 6941,
      "omic": 6942,
      "upy": 6943,
      "ico": 6944,
      "Ġdiff": 6945,
      "Ġ10000": 6946,
      "single": 6947,
      "aping": 6948,
      "velo": 6949,
      "isdir": 6950,
      "isatty": 6951,
      "urtle": 6952,
      "unhexlify": 6953,
      "tool": 6954,
      "platform": 6955,
      "Ġrank": 6956,
      "Ġnums": 6957,
      "Ġ[]]": 6958,
      "])*": 6959,
      "]):": 6960,
      "abb": 6961,
      "abet": 6962,
      "abling": 6963,
      "Ġdoing": 6964,
      "dims": 6965,
      "elm": 6966,
      "times": 6967,
      "Ġdatacursor": 6968,
      "pache": 6969,
      "ube": 6970,
      "Ġcherrypy": 6971,
      "Ġlw": 6972,
      "inese": 6973,
      "iler": 6974,
      "ĠDrop": 6975,
      "Ġ33": 6976,
      "Ġ300": 6977,
      "Ġseq": 6978,
      "Ġseed": 6979,
      "igure": 6980,
      "ĠPart": 6981,
      "abled": 6982,
      "edy": 6983,
      "edit": 6984,
      "Ġys": 6985,
      "Ġyy": 6986,
      "Ġyaxis": 6987,
      "='^": 6988,
      "='',": 6989,
      "ĠSh": 6990,
      "ĠSph": 6991,
      "ĠSqlite": 6992,
      ").)*": 6993,
      "ortError": 6994,
      "Ġgp": 6995,
      "mydata": 6996,
      "mysql": 6997,
      "mymethod": 6998,
      "myproject": 6999,
      "Reg": 7000,
      "Refer": 7001,
      "mov": 7002,
      "dateutil": 7003,
      "ides": 7004,
      "imized": 7005,
      "ariate": 7006,
      "parts": 7007,
      "extensions": 7008,
      "Ġexpect": 7009,
      "ĠMD": 7010,
      "ĠMan": 7011,
      "ĠMongo": 7012,
      "ĠCelery": 7013,
      "Ġcombining": 7014,
      "fft": 7015,
      "prettify": 7016,
      "ĠNon": 7017,
      "ĠNaT": 7018,
      "Ġ46": 7019,
      "fileno": 7020,
      "Ġstar": 7021,
      "resp": 7022,
      "Ġ*.": 7023,
      "Ġsubprocesses": 7024,
      "comple": 7025,
      "compare": 7026,
      "ĠFloat": 7027,
      "ĠFirst": 7028,
      "ĠFrequency": 7029,
      "ĠFigure": 7030,
      "Connect": 7031,
      "Connection": 7032,
      "program": 7033,
      "subs": 7034,
      "subdir": 7035,
      "Ġuni": 7036,
      "Ġunescape": 7037,
      "Ġunknown": 7038,
      "Ġlinear": 7039,
      "Ġlinebreaks": 7040,
      "Ġdebugging": 7041,
      "argins": 7042,
      "ĠAp": 7043,
      "Ġprodu": 7044,
      "Ġproxies": 7045,
      "ĠTk": 7046,
      "ĠTem": 7047,
      "grouper": 7048,
      "ifier": 7049,
      "codeError": 7050,
      "ultaneous": 7051,
      "Ġmac": 7052,
      "Ġmail": 7053,
      "Ġmaintain": 7054,
      "Ġenv": 7055,
      "Ġparty": 7056,
      "cating": 7057,
      "duck": 7058,
      "Ġappears": 7059,
      "'].__": 7060,
      "ĠBY": 7061,
      "ĠBack": 7062,
      "Ġ64": 7063,
      "ĠEvery": 7064,
      "locations": 7065,
      "ivy": 7066,
      "]]))": 7067,
      "currency": 7068,
      "writelines": 7069,
      "ĠWT": 7070,
      "ĠWait": 7071,
      "Chrome": 7072,
      "]))]": 7073,
      "ĠHash": 7074,
      "ĠHDF": 7075,
      "Ġchecksum": 7076,
      "ĠJavascript": 7077,
      "ĠJenkins": 7078,
      "ĠGRO": 7079,
      "ĠGAE": 7080,
      "ĠGunicorn": 7081,
      "archar": 7082,
      "('\\\\{": 7083,
      "Ġ{'$": 7084,
      "Ġquanti": 7085,
      "ĠRec": 7086,
      "ĠRed": 7087,
      "ĠRandom": 7088,
      "bose": 7089,
      "Ġnewlines": 7090,
      "addHandler": 7091,
      "Ġ1024": 7092,
      "STDO": 7093,
      "Ġspam": 7094,
      "Ġ**{'": 7095,
      "ĠRest": 7096,
      "ĠReplace": 7097,
      "Ġresample": 7098,
      "Ġ'./": 7099,
      "204": 7100,
      "Ġaccept": 7101,
      "Ġpyside": 7102,
      "Ġpyspark": 7103,
      "Ġcounter": 7104,
      "Ġiteration": 7105,
      "Ġlaunch": 7106,
      "Ġprepend": 7107,
      "Ġpreserve": 7108,
      "Ġpresence": 7109,
      "Ġ70": 7110,
      "resultType": 7111,
      "Ġpermissions": 7112,
      "1111": 7113,
      "running": 7114,
      "Ġpdb": 7115,
      "Ġoutputs": 7116,
      "Ġcurrency": 7117,
      "Ġ',')": 7118,
      "Ġreturned": 7119,
      "ticle": 7120,
      "SQLdb": 7121,
      "ardless": 7122,
      "Comp": 7123,
      "INET": 7124,
      "Ġ98": 7125,
      "Ġgrab": 7126,
      "Sequence": 7127,
      "ĠPyspark": 7128,
      "Ġcool": 7129,
      "isect": 7130,
      "ĠStringIO": 7131,
      "Ġimmutable": 7132,
      "Ġimprove": 7133,
      "Ġimmediate": 7134,
      "tenv": 7135,
      "+)')": 7136,
      "Ġequalize": 7137,
      "Ġequality": 7138,
      "Defining": 7139,
      "searchsorted": 7140,
      "('.{": 7141,
      "ATIC": 7142,
      "Cannot": 7143,
      "REUSE": 7144,
      ".*\\\\": 7145,
      "ĠQu": 7146,
      "ĠQueue": 7147,
      "ĠDifferent": 7148,
      "Ġ[[]": 7149,
      "tables": 7150,
      "Indexing": 7151,
      "043": 7152,
      "('^\\\\": 7153,
      "Ġoccurs": 7154,
      "selecting": 7155,
      "Ġmodified": 7156,
      "Product": 7157,
      "coder": 7158,
      "bbb": 7159,
      "Named": 7160,
      "Ġlocale": 7161,
      "Ġexecuted": 7162,
      "Ġ128": 7163,
      "Ġcontinue": 7164,
      "('(?!": 7165,
      "Ġzdir": 7166,
      "DateTime": 7167,
      "DatetimeIndex": 7168,
      "Ġworker": 7169,
      "Ġidentify": 7170,
      "=[('": 7171,
      "Ġplay": 7172,
      "ĠCondition": 7173,
      "region": 7174,
      "mutation": 7175,
      "Ġassigning": 7176,
      "Ġterm": 7177,
      "andling": 7178,
      "Summarizing": 7179,
      "Ġ2010": 7180,
      "Timestamp": 7181,
      "berry": 7182,
      "uffling": 7183,
      "connected": 7184,
      "Ġnothing": 7185,
      "Ġerrorbars": 7186,
      "Shade": 7187,
      "Ġterminate": 7188,
      "ibling": 7189,
      "Ġamong": 7190,
      "randn": 7191,
      "charm": 7192,
      "contrib": 7193,
      "ToOne": 7194,
      "Ġabort": 7195,
      "Ġvertically": 7196,
      "\\\\.',": 7197,
      "Ġclosest": 7198,
      "****": 7199,
      "fication": 7200,
      "ioloop": 7201,
      "Joe": 7202,
      "\",\"": 7203,
      "ARB": 7204,
      "olders": 7205,
      "Ġcompile": 7206,
      "Interactive": 7207,
      "Ġradi": 7208,
      "Ġautopct": 7209,
      "heritance": 7210,
      "Ġbiggest": 7211,
      "Ġdetecting": 7212,
      "letter": 7213,
      "Ġyourstring": 7214,
      "]:{": 7215,
      "bcd": 7216,
      "steresis": 7217,
      "Ġchildren": 7218,
      "ByKey": 7219,
      "Move": 7220,
      "Ġoperators": 7221,
      "Ġsquares": 7222,
      "Ġpostgresql": 7223,
      "Any": 7224,
      "Ġauthentication": 7225,
      "Ġauthenticate": 7226,
      "ĠDelete": 7227,
      "096": 7228,
      "Ġcircles": 7229,
      "Ġ'_',": 7230,
      "ĠSubprocess": 7231,
      "Ġ':',": 7232,
      "Ġchoice": 7233,
      "ĠParse": 7234,
      "ĠProduct": 7235,
      "capitalize": 7236,
      "ĠDecimals": 7237,
      "LOB": 7238,
      "imating": 7239,
      "Ġtokens": 7240,
      "Ġpady": 7241,
      "Ġbitfield": 7242,
      "Encoding": 7243,
      "EncodeError": 7244,
      "Words": 7245,
      "Ġtriangle": 7246,
      "Ġcomplete": 7247,
      "Ġaggfunc": 7248,
      "Ġsupport": 7249,
      "Ġcontact": 7250,
      "Ġconstructor": 7251,
      "ĠThread": 7252,
      "Ġquotechar": 7253,
      "monkey": 7254,
      "ĠNumber": 7255,
      "attributes": 7256,
      "Ġflattening": 7257,
      "mented": 7258,
      "('_')[": 7259,
      "Ġhysteresis": 7260,
      "(?=[^": 7261,
      "TERM": 7262,
      "Ġslider": 7263,
      "Ġregardless": 7264,
      "Ġscalar": 7265,
      "9999999": 7266,
      "hasattr": 7267,
      "pansion": 7268,
      "ĠPostgreSQL": 7269,
      "MainLoop": 7270,
      "WSGI": 7271,
      "Ġpressing": 7272,
      "Ġslashes": 7273,
      "Ġmilliseconds": 7274,
      "Ġforwarding": 7275,
      "Ġbackslashes": 7276,
      "('|'.": 7277,
      "Ġmicrosecond": 7278,
      "Ġvisu": 7279,
      "Ġvisible": 7280,
      "pairs": 7281,
      "Detecting": 7282,
      "Recursive": 7283,
      "simplejson": 7284,
      "ways": 7285,
      "Ġasyncio": 7286,
      "Ġswap": 7287,
      "Ġattrs": 7288,
      "Ġblurred": 7289,
      "Ġblah": 7290,
      "Ġvowel": 7291,
      "Ġvowels": 7292,
      "Conditionally": 7293,
      "ĠCharacters": 7294,
      "contourf": 7295,
      "OSI": 7296,
      "ZipFile": 7297,
      "Ġfactorial": 7298,
      "Ġ'+'": 7299,
      "serialize": 7300,
      "Ġserializable": 7301,
      "Cursor": 7302,
      "Scikit": 7303,
      "pixbuf": 7304,
      "tadata": 7305,
      "Ġmimetype": 7306,
      "Ġissue": 7307,
      "setWindowTitle": 7308,
      "Reshape": 7309,
      "Argparse": 7310,
      "ĠZeros": 7311,
      "ĠFormatting": 7312,
      "Ġbeautifulsoup": 7313,
      "Termin": 7314,
      "rupt": 7315,
      "Ġmonkey": 7316,
      "abcdefgh": 7317,
      "Serializer": 7318,
      "beautifulsoup": 7319,
      "housing": 7320,
      "nsew": 7321,
      "vfb": 7322,
      "Ġcartesian": 7323,
      "Ġrestrict": 7324,
      "Ġdiagrams": 7325,
      "ĠSELECT": 7326,
      "quickstart": 7327,
      "Ġexponenti": 7328,
      "ĠNetworkX": 7329,
      "ĠEllips": 7330,
      "Ġ8601": 7331,
      "Ġintersecting": 7332,
      "Building": 7333,
      "XYZ": 7334,
      "}/{": 7335,
      "Ġeigen": 7336,
      "ednesday": 7337,
      "parallelize": 7338,
      "Ġmachine": 7339,
      "MULTILINE": 7340,
      "Organizing": 7341,
      "utemany": 7342,
      "vwxyz": 7343,
      "Ġabove": 7344,
      "stretch": 7345,
      "Ġoptparse": 7346,
      "Ġdatacursormode": 7347,
      "ĠGROUP": 7348,
      "STDOUT": 7349,
      "REUSEADDR": 7350,
      "%(": 7351,
      ")+',": 7352,
      ");')": 7353,
      "*|": 7354,
      ",}\"\"\".": 7355,
      ",}',": 7356,
      ".{": 7357,
      ".\"\"\"": 7358,
      ".'))": 7359,
      ".]*": 7360,
      ".]+": 7361,
      "/?": 7362,
      "/]+)": 7363,
      "025": 7364,
      "110": 7365,
      "400": 7366,
      "511": 7367,
      "74": 7368,
      "82": 7369,
      "83": 7370,
      ":])]": 7371,
      ">.": 7372,
      ">)',": 7373,
      "Ab": 7374,
      "ASS": 7375,
      "ANG": 7376,
      "Amount": 7377,
      "Agent": 7378,
      "Activ": 7379,
      "Bull": 7380,
      "Block": 7381,
      "BASE": 7382,
      "CI": 7383,
      "Cat": 7384,
      "CRE": 7385,
      "Clean": 7386,
      "CES": 7387,
      "DGR": 7388,
      "Distance": 7389,
      "EC": 7390,
      "ERE": 7391,
      "ECT": 7392,
      "Embed": 7393,
      "Fit": 7394,
      "Font": 7395,
      "Found": 7396,
      "Flatten": 7397,
      "FAST": 7398,
      "Game": 7399,
      "Hi": 7400,
      "Hel": 7401,
      "Head": 7402,
      "Hide": 7403,
      "Histogram": 7404,
      "If": 7405,
      "Iss": 7406,
      "JECT": 7407,
      "Kill": 7408,
      "Loo": 7409,
      "LINES": 7410,
      "Mark": 7411,
      "Node": 7412,
      "Nested": 7413,
      "NET": 7414,
      "OO": 7415,
      "OU": 7416,
      "PLE": 7417,
      "Press": 7418,
      "PORT": 7419,
      "PYTHON": 7420,
      "QWidget": 7421,
      "QPushButton": 7422,
      "Root": 7423,
      "SH": 7424,
      "Sim": 7425,
      "Stop": 7426,
      "Source": 7427,
      "Speed": 7428,
      "SqlAlchemy": 7429,
      "Tom": 7430,
      "Taking": 7431,
      "Tuples": 7432,
      "TCS": 7433,
      "Ver": 7434,
      "WE": 7435,
      "Want": 7436,
      "Wildcard": 7437,
      "ZZ": 7438,
      "[__": 7439,
      "][:": 7440,
      "^{": 7441,
      "_='": 7442,
      "_]+',": 7443,
      "`?": 7444,
      "avi": 7445,
      "bon": 7446,
      "bow": 7447,
      "bash": 7448,
      "bfill": 7449,
      "bounds": 7450,
      "cb": 7451,
      "cj": 7452,
      "cked": 7453,
      "cluster": 7454,
      "dl": 7455,
      "don": 7456,
      "den": 7457,
      "dash": 7458,
      "dparser": 7459,
      "eded": 7460,
      "emes": 7461,
      "fg": 7462,
      "fin": 7463,
      "fun": 7464,
      "fname": 7465,
      "fout": 7466,
      "free": 7467,
      "flower": 7468,
      "fish": 7469,
      "fession": 7470,
      "gte": 7471,
      "gold": 7472,
      "gmtime": 7473,
      "hon": 7474,
      "hip": 7475,
      "hard": 7476,
      "ising": 7477,
      "ious": 7478,
      "mu": 7479,
      "mar": 7480,
      "masked": 7481,
      "nr": 7482,
      "nz": 7483,
      "nice": 7484,
      "nector": 7485,
      "nltk": 7486,
      "ose": 7487,
      "oting": 7488,
      "pm": 7489,
      "pto": 7490,
      "pting": 7491,
      "popen": 7492,
      "ported": 7493,
      "same": 7494,
      "sim": 7495,
      "sale": 7496,
      "spect": 7497,
      "sqlite": 7498,
      "slug": 7499,
      "sampling": 7500,
      "social": 7501,
      "schema": 7502,
      "uli": 7503,
      "ucli": 7504,
      "vor": 7505,
      "vance": 7506,
      "wi": 7507,
      "wind": 7508,
      "ximate": 7509,
      "yield": 7510,
      "yload": 7511,
      "yles": 7512,
      "yms": 7513,
      "}})": 7514,
      "Ġ#": 7515,
      "Ġ]": 7516,
      "Ġ~": 7517,
      "Ġown": 7518,
      "Ġ...": 7519,
      "ĠTrans": 7520,
      "Ġlimits": 7521,
      "invert": 7522,
      "integ": 7523,
      "inition": 7524,
      "invalid": 7525,
      "Ġago": 7526,
      "Ġachieve": 7527,
      "thers": 7528,
      "there": 7529,
      "through": 7530,
      "theta": 7531,
      "star": 7532,
      "step": 7533,
      "Ġinset": 7534,
      "Ġinfix": 7535,
      "atin": 7536,
      "atis": 7537,
      "atur": 7538,
      "attach": 7539,
      "atleast": 7540,
      "atomic": 7541,
      "Ġtz": 7542,
      "Ġtmp": 7543,
      "Ġtrouble": 7544,
      "Ġturtle": 7545,
      "ingu": 7546,
      "leave": 7547,
      "Ġfalse": 7548,
      "Ġflush": 7549,
      "Ġfeed": 7550,
      "Ġfcntl": 7551,
      "Ġfilled": 7552,
      "rev": 7553,
      "reet": 7554,
      "recur": 7555,
      "Ġtools": 7556,
      "Ġcx": 7557,
      "Ġcost": 7558,
      "Ġcandle": 7559,
      "Ġcars": 7560,
      "Ġcluster": 7561,
      "Ġcycle": 7562,
      "Ġclusters": 7563,
      "metadata": 7564,
      "Ġdd": 7565,
      "Ġdic": 7566,
      "Ġdump": 7567,
      "Ġpl": 7568,
      "Ġpure": 7569,
      "another": 7570,
      "animal": 7571,
      "aniti": 7572,
      "sex": 7573,
      "sequen": 7574,
      "Ġ'$": 7575,
      "Ġ']')": 7576,
      "Ġothers": 7577,
      "',))": 7578,
      "','.": 7579,
      "Ġwin": 7580,
      "Ġwra": 7581,
      "('>',": 7582,
      "aler": 7583,
      "along": 7584,
      "allable": 7585,
      "listrow": 7586,
      "Ġsound": 7587,
      "Ġsolve": 7588,
      "Ġssf": 7589,
      "tection": 7590,
      "')[:": 7591,
      "uman": 7592,
      "getenv": 7593,
      "()')": 7594,
      "()[:": 7595,
      "()=\"": 7596,
      "()<>": 7597,
      "Ġmd": 7598,
      "Ġmid": 7599,
      "Ġmutable": 7600,
      "Ġimap": 7601,
      "Ġiloc": 7602,
      "enum": 7603,
      "ented": 7604,
      "ength": 7605,
      "encoding": 7606,
      "ĠlistD": 7607,
      "Ġnx": 7608,
      "dean": 7609,
      "device": 7610,
      "deleting": 7611,
      "ithub": 7612,
      "Ġblob": 7613,
      "Ġbounds": 7614,
      "Ġbanana": 7615,
      "Ġbroadcast": 7616,
      "Ġbroken": 7617,
      "asof": 7618,
      "asfreq": 7619,
      "nto": 7620,
      "Ġetree": 7621,
      "Ġreorder": 7622,
      "Ġremain": 7623,
      "Ġreco": 7624,
      "Ġrecent": 7625,
      "Ġrestore": 7626,
      "Ġreversing": 7627,
      "Ġreason": 7628,
      "Ġrearrange": 7629,
      "Ġrefresh": 7630,
      "Ġanimation": 7631,
      "Ġur": 7632,
      "Ġund": 7633,
      "Ġupdating": 7634,
      "oun": 7635,
      "ounce": 7636,
      "laun": 7637,
      "']/": 7638,
      "']]]": 7639,
      "']\").": 7640,
      "['__": 7641,
      "ulated": 7642,
      "ĠIm": 7643,
      "verti": 7644,
      "omatic": 7645,
      "Ġdiv": 7646,
      "Ġxaxis": 7647,
      "dfrm": 7648,
      "ameter": 7649,
      "Ġ29": 7650,
      "ism": 7651,
      "iss": 7652,
      "ismylist": 7653,
      "isupper": 7654,
      "chem": 7655,
      "getmtime": 7656,
      "itation": 7657,
      "union": 7658,
      "adoop": 7659,
      "toDF": 7660,
      "setp": 7661,
      "libs": 7662,
      "Ġrating": 7663,
      "Ġrng": 7664,
      "Ġrule": 7665,
      "ĠnumPy": 7666,
      "Ġones": 7667,
      "])].": 7668,
      "ably": 7669,
      "Ġconcurrent": 7670,
      "Ġcontiguous": 7671,
      "Ġconstra": 7672,
      "printing": 7673,
      "dia": 7674,
      "diagonal": 7675,
      "pact": 7676,
      "pause": 7677,
      "palet": 7678,
      "payload": 7679,
      "Ġ->": 7680,
      "uby": 7681,
      "Ġchannel": 7682,
      "Ġlanguage": 7683,
      "Ġlongest": 7684,
      "plied": 7685,
      "inet": 7686,
      "inear": 7687,
      "plemented": 7688,
      "ssian": 7689,
      "([\\\\": 7690,
      "([[[": 7691,
      "([('/": 7692,
      "ĠPK": 7693,
      "ĠPort": 7694,
      "ĠPass": 7695,
      "ĠPID": 7696,
      "ĠPassing": 7697,
      "ĠPAND": 7698,
      "ĠPanda": 7699,
      "ĠPOSI": 7700,
      "serv": 7701,
      "Ġyerr": 7702,
      "='|": 7703,
      "='\\\\": 7704,
      "ooth": 7705,
      "ĠSW": 7706,
      "ĠSimple": 7707,
      "ĠScript": 7708,
      "ĠSpec": 7709,
      "cking": 7710,
      "anger": 7711,
      "angram": 7712,
      "Ġhang": 7713,
      "Ġhist": 7714,
      "Ġhover": 7715,
      "Ġgreate": 7716,
      "),))": 7717,
      "context": 7718,
      "console": 7719,
      "mble": 7720,
      "modified": 7721,
      "Ġmultithreaded": 7722,
      "ipv": 7723,
      "ipient": 7724,
      "ently": 7725,
      "imsave": 7726,
      "implicitly": 7727,
      "john": 7728,
      "exact": 7729,
      "exclude": 7730,
      "exception": 7731,
      "Ġteach": 7732,
      "Ġexten": 7733,
      "ĠMain": 7734,
      "ĠCor": 7735,
      "ĠCython": 7736,
      "ĠClose": 7737,
      "ĠCamelCase": 7738,
      "ĠCygwin": 7739,
      "peg": 7740,
      "peak": 7741,
      "Ġcombination": 7742,
      ")]]": 7743,
      "fff": 7744,
      "pretty": 7745,
      "ĠNan": 7746,
      "Ġ40": 7747,
      "Ġ49": 7748,
      "Ġ4096": 7749,
      "Ġstudent": 7750,
      "resize": 7751,
      "splitlists": 7752,
      "indexing": 7753,
      "compress": 7754,
      "Ġ%.": 7755,
      "Ġmultiples": 7756,
      "ĠField": 7757,
      "ĠFail": 7758,
      "ĠForeign": 7759,
      "Consecutive": 7760,
      "produ": 7761,
      "proper": 7762,
      "subject": 7763,
      "Ġunable": 7764,
      "Ġunwanted": 7765,
      "Ġ51": 7766,
      "Ġdeleting": 7767,
      "Ġdeplo": 7768,
      "Ġdepth": 7769,
      "sym": 7770,
      "symbol": 7771,
      "ĠAST": 7772,
      "ĠAxes": 7773,
      "Ġprocessing": 7774,
      "Ġprovider": 7775,
      "Ġpropag": 7776,
      "ĠTK": 7777,
      "ĠTra": 7778,
      "ĠTwe": 7779,
      "ĠTABLE": 7780,
      "ggable": 7781,
      "ĠLiter": 7782,
      "ĠLXML": 7783,
      "Ġsetup": 7784,
      "short": 7785,
      "Ġmakes": 7786,
      "Ġmagnit": 7787,
      "Ġuses": 7788,
      "summing": 7789,
      "Ġmatter": 7790,
      "Ġenum": 7791,
      "Ġenable": 7792,
      "Ġencry": 7793,
      "cats": 7794,
      "Ġtimeit": 7795,
      "Ġlestring": 7796,
      "Ġmyscript": 7797,
      "ĠUP": 7798,
      "Ġjava": 7799,
      "((\\\\": 7800,
      "Ġaddresses": 7801,
      "Ġapplied": 7802,
      "ĠBy": 7803,
      "ĠBoo": 7804,
      "ĠBasic": 7805,
      "Ġpool": 7806,
      "Ġpopen": 7807,
      "Invalid": 7808,
      "agent": 7809,
      "ĠEach": 7810,
      "ĠEST": 7811,
      "ĠEmail": 7812,
      "svg": 7813,
      "urlparse": 7814,
      "urlretrieve": 7815,
      "minimum": 7816,
      "(*((": 7817,
      "Ġstrftime": 7818,
      "rown": 7819,
      "alise": 7820,
      "grade": 7821,
      "Ġ\"$": 7822,
      "Ġ\"%": 7823,
      "Ġbehind": 7824,
      "Ġprints": 7825,
      "Choice": 7826,
      "Ġchecking": 7827,
      "ĠGhost": 7828,
      "ĠGevent": 7829,
      "ĠGMT": 7830,
      "Ġ(')": 7831,
      "Ġopener": 7832,
      "Ġquality": 7833,
      "loader": 7834,
      "ĠRun": 7835,
      "ĠRaw": 7836,
      "ĠRasp": 7837,
      "Where": 7838,
      "Ġoverwrite": 7839,
      "filterwarnings": 7840,
      "Ġ:-": 7841,
      "Ġresizing": 7842,
      "earn": 7843,
      "Ġaccount": 7844,
      "Ġaccents": 7845,
      "Ġpygtk": 7846,
      "lus": 7847,
      "which": 7848,
      "Ġpercenti": 7849,
      ":///": 7850,
      "Ġruns": 7851,
      "Ġselector": 7852,
      "Ġselectively": 7853,
      "()))]": 7854,
      "inity": 7855,
      "('[%": 7856,
      "tica": 7857,
      "eak": 7858,
      "ards": 7859,
      "Ġinteract": 7860,
      "Ġlogarithmic": 7861,
      "posing": 7862,
      "within": 7863,
      "attrs": 7864,
      "('/')": 7865,
      "Forms": 7866,
      "Ġdisk": 7867,
      "Ġthisismylist": 7868,
      "pped": 7869,
      "pposite": 7870,
      "Ġsomelist": 7871,
      "ĠPyGTK": 7872,
      "ĠPyramid": 7873,
      "LEFT": 7874,
      "worker": 7875,
      "worksheet": 7876,
      "345": 7877,
      "]]),": 7878,
      "acc": 7879,
      "account": 7880,
      "ĠView": 7881,
      "Ġsimultaneous": 7882,
      ")]).": 7883,
      ")])]": 7884,
      "Ġbackreference": 7885,
      "Debugging": 7886,
      "Determining": 7887,
      "('.*": 7888,
      "Ġlis": 7889,
      "Ġliterals": 7890,
      "ynamo": 7891,
      "colour": 7892,
      "Ġheadings": 7893,
      "('{},": 7894,
      "Ġseparating": 7895,
      "READ": 7896,
      "notnull": 7897,
      ":])))": 7898,
      "Ġtruth": 7899,
      "168": 7900,
      "abcde": 7901,
      "ĠMultipart": 7902,
      ".*)',": 7903,
      ".*\\\\.": 7904,
      "ĠQTable": 7905,
      "Ġhexadecimal": 7906,
      "Ġgraphemes": 7907,
      "Resize": 7908,
      "Resampling": 7909,
      "inking": 7910,
      "trick": 7911,
      "trieving": 7912,
      "otepad": 7913,
      "refresh": 7914,
      "selected": 7915,
      "Ġmodi": 7916,
      "Project": 7917,
      "cycle": 7918,
      "Ġ_,": 7919,
      "('-')]": 7920,
      "DEV": 7921,
      "licating": 7922,
      ")?(": 7923,
      "Ġexecuting": 7924,
      "(\"'\",": 7925,
      "nderstanding": 7926,
      "250": 7927,
      "256": 7928,
      "Logging": 7929,
      "ĠYour": 7930,
      "ĠYear": 7931,
      "Ġfillna": 7932,
      "updated": 7933,
      "Ġadded": 7934,
      "Ġadjust": 7935,
      "digits": 7936,
      "Ġtranslate": 7937,
      "Store": 7938,
      "Ġassignments": 7939,
      "TEST": 7940,
      "avg": 7941,
      "ĠChange": 7942,
      "ĠChrome": 7943,
      "books": 7944,
      "uffix": 7945,
      "topic": 7946,
      "Ġsigned": 7947,
      "Ġsignals": 7948,
      "Ġsearching": 7949,
      "ĠCombine": 7950,
      "ĠCommand": 7951,
      "Ġformula": 7952,
      "versions": 7953,
      "192": 7954,
      "GroupBy": 7955,
      "Shuffle": 7956,
      "Ġclients": 7957,
      "Ġclipboard": 7958,
      "Ġ'/')": 7959,
      "1415": 7960,
      "Ġglobally": 7961,
      "importlib": 7962,
      "ibility": 7963,
      "backend": 7964,
      "termios": 7965,
      "MEDI": 7966,
      "control": 7967,
      "Ġrendering": 7968,
      "Ġcopying": 7969,
      "tending": 7970,
      "Ġmanage": 7971,
      "multiprocessing": 7972,
      "xbc": 7973,
      "Scale": 7974,
      "Ġclosed": 7975,
      "{}_{}'.": 7976,
      "ĠDatetime": 7977,
      "copyfile": 7978,
      "vision": 7979,
      "relpath": 7980,
      "relations": 7981,
      "Ġloading": 7982,
      "Classifier": 7983,
      "Ġgridlines": 7984,
      "Ġbegining": 7985,
      "ccc": 7986,
      "Ġautocomple": 7987,
      "Ġphantomjs": 7988,
      "Ġsuperclass": 7989,
      "unication": 7990,
      "HTML": 7991,
      "Point": 7992,
      "duplicate": 7993,
      "duplicated": 7994,
      "Ġredirected": 7995,
      "Ġyourlist": 7996,
      "PIPELINES": 7997,
      "positions": 7998,
      "tzinfo": 7999
    },
    "merges": [
      [
        "i",
        "n"
      ],
      [
        "o",
        "n"
      ],
      [
        "Ġ",
        "a"
      ],
      [
        "t",
        "h"
      ],
      [
        "s",
        "t"
      ],
      [
        "Ġ",
        "in"
      ],
      [
        "e",
        "r"
      ],
      [
        "a",
        "t"
      ],
      [
        "Ġ",
        "t"
      ],
      [
        "o",
        "r"
      ],
      [
        "in",
        "g"
      ],
      [
        "l",
        "e"
      ],
      [
        "Ġ",
        "f"
      ],
      [
        "r",
        "e"
      ],
      [
        "o",
        "w"
      ],
      [
        "l",
        "i"
      ],
      [
        "y",
        "th"
      ],
      [
        "yth",
        "on"
      ],
      [
        "Ġt",
        "o"
      ],
      [
        "Ġ",
        "c"
      ],
      [
        "m",
        "e"
      ],
      [
        "Ġ",
        "d"
      ],
      [
        "Ġ",
        "p"
      ],
      [
        "a",
        "n"
      ],
      [
        "a",
        "r"
      ],
      [
        "s",
        "e"
      ],
      [
        "Ġ",
        "'"
      ],
      [
        "Ġ",
        "o"
      ],
      [
        "'",
        ","
      ],
      [
        "c",
        "t"
      ],
      [
        "H",
        "ow"
      ],
      [
        "Ġ",
        "w"
      ],
      [
        "P",
        "ython"
      ],
      [
        "(",
        "'"
      ],
      [
        "a",
        "l"
      ],
      [
        "li",
        "st"
      ],
      [
        "r",
        "o"
      ],
      [
        "l",
        "o"
      ],
      [
        "Ġ",
        "s"
      ],
      [
        "t",
        "e"
      ],
      [
        "'",
        ")"
      ],
      [
        "Ġo",
        "f"
      ],
      [
        "u",
        "m"
      ],
      [
        "g",
        "e"
      ],
      [
        "(",
        ")"
      ],
      [
        "r",
        "a"
      ],
      [
        "Ġ",
        "m"
      ],
      [
        "e",
        "s"
      ],
      [
        "Ġ",
        "i"
      ],
      [
        "i",
        "on"
      ],
      [
        "e",
        "n"
      ],
      [
        "Ġ",
        "th"
      ],
      [
        "st",
        "r"
      ],
      [
        "Ġf",
        "or"
      ],
      [
        "Ġ",
        "list"
      ],
      [
        "Ġ",
        "Python"
      ],
      [
        "Ġ",
        "n"
      ],
      [
        "Ġ",
        "="
      ],
      [
        "d",
        "e"
      ],
      [
        "t",
        "i"
      ],
      [
        "at",
        "e"
      ],
      [
        "i",
        "th"
      ],
      [
        "Ġ",
        "b"
      ],
      [
        "a",
        "s"
      ],
      [
        "Ġw",
        "ith"
      ],
      [
        "Ġ",
        "v"
      ],
      [
        ")",
        ")"
      ],
      [
        "n",
        "t"
      ],
      [
        "Ġth",
        "e"
      ],
      [
        "Ġ",
        "e"
      ],
      [
        "Ġ",
        "re"
      ],
      [
        "str",
        "ing"
      ],
      [
        "Ġp",
        "ython"
      ],
      [
        "o",
        "l"
      ],
      [
        "t",
        "er"
      ],
      [
        "Ġa",
        "n"
      ],
      [
        "Ġ",
        "u"
      ],
      [
        "lo",
        "t"
      ],
      [
        "o",
        "u"
      ],
      [
        "an",
        "d"
      ],
      [
        "u",
        "e"
      ],
      [
        "at",
        "a"
      ],
      [
        "l",
        "a"
      ],
      [
        "'",
        "]"
      ],
      [
        "[",
        "'"
      ],
      [
        "Ġ",
        "string"
      ],
      [
        "k",
        "e"
      ],
      [
        "in",
        "t"
      ],
      [
        "ro",
        "m"
      ],
      [
        "u",
        "l"
      ],
      [
        "r",
        "i"
      ],
      [
        "Ġ",
        "I"
      ],
      [
        "i",
        "le"
      ],
      [
        "v",
        "er"
      ],
      [
        "o",
        "m"
      ],
      [
        "u",
        "p"
      ],
      [
        "i",
        "c"
      ],
      [
        "Ġf",
        "rom"
      ],
      [
        "Ġd",
        "i"
      ],
      [
        "Ġ",
        "x"
      ],
      [
        "c",
        "e"
      ],
      [
        "\"",
        "\""
      ],
      [
        "d",
        "f"
      ],
      [
        "ct",
        "ion"
      ],
      [
        "Ġ",
        "1"
      ],
      [
        "ra",
        "y"
      ],
      [
        "a",
        "me"
      ],
      [
        "h",
        "ow"
      ],
      [
        "Ġ",
        "2"
      ],
      [
        "p",
        "lot"
      ],
      [
        "s",
        "ing"
      ],
      [
        "a",
        "p"
      ],
      [
        "v",
        "e"
      ],
      [
        "i",
        "s"
      ],
      [
        "r",
        "int"
      ],
      [
        "Ġv",
        "al"
      ],
      [
        "c",
        "h"
      ],
      [
        "ge",
        "t"
      ],
      [
        "Ġa",
        "r"
      ],
      [
        "u",
        "r"
      ],
      [
        "i",
        "t"
      ],
      [
        "u",
        "n"
      ],
      [
        "a",
        "d"
      ],
      [
        "p",
        "y"
      ],
      [
        "t",
        "o"
      ],
      [
        "p",
        "l"
      ],
      [
        "and",
        "as"
      ],
      [
        "in",
        "d"
      ],
      [
        "me",
        "nt"
      ],
      [
        "se",
        "t"
      ],
      [
        "li",
        "b"
      ],
      [
        "u",
        "t"
      ],
      [
        "Ġ",
        "("
      ],
      [
        "Ġ",
        "r"
      ],
      [
        "Ġn",
        "um"
      ],
      [
        "ke",
        "y"
      ],
      [
        "Ġ",
        "on"
      ],
      [
        "Ġ",
        "["
      ],
      [
        "\\",
        "\\"
      ],
      [
        "]",
        ")"
      ],
      [
        "x",
        "t"
      ],
      [
        "a",
        "b"
      ],
      [
        "Ġc",
        "on"
      ],
      [
        "Ġd",
        "o"
      ],
      [
        "p",
        "rint"
      ],
      [
        "d",
        "i"
      ],
      [
        "Ġc",
        "ol"
      ],
      [
        "e",
        "c"
      ],
      [
        "e",
        "l"
      ],
      [
        "ti",
        "me"
      ],
      [
        "Ġd",
        "ata"
      ],
      [
        "te",
        "m"
      ],
      [
        "Ġar",
        "ray"
      ],
      [
        "o",
        "de"
      ],
      [
        "ra",
        "me"
      ],
      [
        "at",
        "plot"
      ],
      [
        "atplot",
        "lib"
      ],
      [
        "p",
        "a"
      ],
      [
        "Ġ",
        "-"
      ],
      [
        "um",
        "n"
      ],
      [
        "Ġf",
        "ile"
      ],
      [
        "Ġan",
        "d"
      ],
      [
        "a",
        "x"
      ],
      [
        "u",
        "es"
      ],
      [
        "u",
        "b"
      ],
      [
        "Ġc",
        "h"
      ],
      [
        "Ġ",
        "l"
      ],
      [
        "t",
        "ing"
      ],
      [
        "]",
        ","
      ],
      [
        "Ġu",
        "sing"
      ],
      [
        "Ġi",
        "f"
      ],
      [
        "ar",
        "y"
      ],
      [
        "p",
        "li"
      ],
      [
        "er",
        "s"
      ],
      [
        "in",
        "e"
      ],
      [
        "i",
        "l"
      ],
      [
        "or",
        "d"
      ],
      [
        "Ġ",
        "D"
      ],
      [
        "p",
        "le"
      ],
      [
        "Ġ",
        "3"
      ],
      [
        "m",
        "at"
      ],
      [
        "de",
        "x"
      ],
      [
        "e",
        "t"
      ],
      [
        "a",
        "y"
      ],
      [
        "Ġ",
        "se"
      ],
      [
        "e",
        "ct"
      ],
      [
        "pl",
        "t"
      ],
      [
        "i",
        "g"
      ],
      [
        "s",
        "s"
      ],
      [
        "an",
        "ge"
      ],
      [
        "'",
        ":"
      ],
      [
        "ul",
        "ti"
      ],
      [
        "(",
        "["
      ],
      [
        "Ġ",
        "P"
      ],
      [
        "Ġcol",
        "umn"
      ],
      [
        "ab",
        "le"
      ],
      [
        "le",
        "ment"
      ],
      [
        "m",
        "a"
      ],
      [
        "al",
        "l"
      ],
      [
        "e",
        "d"
      ],
      [
        "s",
        "er"
      ],
      [
        "Ġ",
        "key"
      ],
      [
        "0",
        "0"
      ],
      [
        "Ġ",
        "y"
      ],
      [
        "pli",
        "t"
      ],
      [
        "Ġdi",
        "ction"
      ],
      [
        "c",
        "es"
      ],
      [
        "Ġ",
        "0"
      ],
      [
        "=",
        "'"
      ],
      [
        "o",
        "o"
      ],
      [
        "_",
        "_"
      ],
      [
        "Ġ",
        "S"
      ],
      [
        ")",
        "."
      ],
      [
        "Ġc",
        "an"
      ],
      [
        "c",
        "k"
      ],
      [
        "p",
        "en"
      ],
      [
        "an",
        "g"
      ],
      [
        "Ġval",
        "ues"
      ],
      [
        "or",
        "t"
      ],
      [
        "n",
        "ame"
      ],
      [
        "o",
        "t"
      ],
      [
        "Ġ",
        "h"
      ],
      [
        "Ġ",
        "g"
      ],
      [
        "s",
        "how"
      ],
      [
        "at",
        "ion"
      ],
      [
        ")",
        ","
      ],
      [
        "Ġ",
        "get"
      ],
      [
        "m",
        "y"
      ],
      [
        "c",
        "on"
      ],
      [
        "Ġ",
        "+"
      ],
      [
        "q",
        "u"
      ],
      [
        "R",
        "e"
      ],
      [
        "m",
        "b"
      ],
      [
        "m",
        "o"
      ],
      [
        "Ġm",
        "atplotlib"
      ],
      [
        "ro",
        "up"
      ],
      [
        "ver",
        "t"
      ],
      [
        "Ġe",
        "lement"
      ],
      [
        "d",
        "ate"
      ],
      [
        "Ġin",
        "to"
      ],
      [
        "Ġm",
        "ulti"
      ],
      [
        "le",
        "n"
      ],
      [
        "i",
        "p"
      ],
      [
        "Ġval",
        "ue"
      ],
      [
        "v",
        "al"
      ],
      [
        "Ġp",
        "andas"
      ],
      [
        "i",
        "d"
      ],
      [
        "b",
        "j"
      ],
      [
        "f",
        "or"
      ],
      [
        "l",
        "l"
      ],
      [
        "Ġb",
        "y"
      ],
      [
        "Ġw",
        "ay"
      ],
      [
        "Ġdiction",
        "ary"
      ],
      [
        "en",
        "t"
      ],
      [
        "n",
        "p"
      ],
      [
        "i",
        "m"
      ],
      [
        "j",
        "o"
      ],
      [
        "d",
        "a"
      ],
      [
        "p",
        "la"
      ],
      [
        "ur",
        "n"
      ],
      [
        "ar",
        "i"
      ],
      [
        "Ġnum",
        "py"
      ],
      [
        "ang",
        "o"
      ],
      [
        "p",
        "ar"
      ],
      [
        "j",
        "ango"
      ],
      [
        "e",
        "x"
      ],
      [
        "ou",
        "t"
      ],
      [
        "mb",
        "da"
      ],
      [
        "o",
        "s"
      ],
      [
        "Ġt",
        "e"
      ],
      [
        "\"\"",
        "\""
      ],
      [
        "la",
        "mbda"
      ],
      [
        "jo",
        "in"
      ],
      [
        "Ġe",
        "x"
      ],
      [
        "Ġnum",
        "b"
      ],
      [
        "up",
        "le"
      ],
      [
        "Ġ",
        "M"
      ],
      [
        "p",
        "t"
      ],
      [
        "i",
        "st"
      ],
      [
        "bj",
        "ect"
      ],
      [
        "a",
        "m"
      ],
      [
        "w",
        "o"
      ],
      [
        "Ġi",
        "s"
      ],
      [
        "Ġ",
        "C"
      ],
      [
        "p",
        "e"
      ],
      [
        "t",
        "a"
      ],
      [
        "Ġc",
        "om"
      ],
      [
        "i",
        "r"
      ],
      [
        ")",
        "]"
      ],
      [
        "f",
        "f"
      ],
      [
        "f",
        "rame"
      ],
      [
        "t",
        "urn"
      ],
      [
        "Ġ",
        "lo"
      ],
      [
        "Ġp",
        "lot"
      ],
      [
        "o",
        "d"
      ],
      [
        "te",
        "d"
      ],
      [
        "ou",
        "nt"
      ],
      [
        "a",
        "ct"
      ],
      [
        "Ġr",
        "ow"
      ],
      [
        "p",
        "re"
      ],
      [
        "q",
        "ue"
      ],
      [
        "e",
        "w"
      ],
      [
        "Ġ",
        "N"
      ],
      [
        "Ġch",
        "ar"
      ],
      [
        "Ġ",
        "4"
      ],
      [
        "f",
        "ile"
      ],
      [
        "i",
        "tem"
      ],
      [
        "Ġt",
        "wo"
      ],
      [
        "T",
        "r"
      ],
      [
        "l",
        "f"
      ],
      [
        "()",
        ")"
      ],
      [
        "a",
        "se"
      ],
      [
        "Ġ",
        "st"
      ],
      [
        "re",
        "s"
      ],
      [
        "s",
        "plit"
      ],
      [
        "{",
        "'"
      ],
      [
        "in",
        "dex"
      ],
      [
        "d",
        "d"
      ],
      [
        "Ġ",
        "*"
      ],
      [
        "')",
        ")"
      ],
      [
        "pa",
        "th"
      ],
      [
        "Ġs",
        "ub"
      ],
      [
        "Ġs",
        "c"
      ],
      [
        "Ġa",
        "ll"
      ],
      [
        "i",
        "z"
      ],
      [
        "p",
        "ython"
      ],
      [
        "t",
        "r"
      ],
      [
        "c",
        "om"
      ],
      [
        "n",
        "d"
      ],
      [
        "Ġ",
        "%"
      ],
      [
        "b",
        "y"
      ],
      [
        "s",
        "ion"
      ],
      [
        "Ġmulti",
        "ple"
      ],
      [
        "un",
        "ction"
      ],
      [
        "Ġw",
        "h"
      ],
      [
        "Ġ",
        "F"
      ],
      [
        "[",
        ":"
      ],
      [
        "Ġi",
        "tem"
      ],
      [
        "Tr",
        "ue"
      ],
      [
        "C",
        "on"
      ],
      [
        "pla",
        "ce"
      ],
      [
        "s",
        "or"
      ],
      [
        "p",
        "ro"
      ],
      [
        "o",
        "p"
      ],
      [
        "s",
        "ub"
      ],
      [
        "p",
        "ut"
      ],
      [
        "Ġlist",
        "s"
      ],
      [
        "re",
        "ate"
      ],
      [
        "Ġu",
        "n"
      ],
      [
        "Ġ",
        "5"
      ],
      [
        "Ġd",
        "ate"
      ],
      [
        "l",
        "as"
      ],
      [
        "i",
        "me"
      ],
      [
        "er",
        "e"
      ],
      [
        "Ġl",
        "ine"
      ],
      [
        "d",
        "ata"
      ],
      [
        "Ġdata",
        "frame"
      ],
      [
        "l",
        "y"
      ],
      [
        "Ġd",
        "e"
      ],
      [
        "s",
        "y"
      ],
      [
        "Ġt",
        "uple"
      ],
      [
        "re",
        "turn"
      ],
      [
        "ar",
        "g"
      ],
      [
        "ces",
        "s"
      ],
      [
        "Ġ",
        "A"
      ],
      [
        "Ġ",
        "how"
      ],
      [
        "Ġp",
        "ro"
      ],
      [
        "Ġ",
        "T"
      ],
      [
        "di",
        "ct"
      ],
      [
        "')",
        "."
      ],
      [
        "ri",
        "te"
      ],
      [
        "'",
        "."
      ],
      [
        "c",
        "ol"
      ],
      [
        "Ġ=",
        "="
      ],
      [
        "Ġchar",
        "act"
      ],
      [
        "e",
        "st"
      ],
      [
        "on",
        "e"
      ],
      [
        "Ġa",
        "x"
      ],
      [
        "g",
        "g"
      ],
      [
        "Ġ",
        "L"
      ],
      [
        "ar",
        "ray"
      ],
      [
        "Ġte",
        "xt"
      ],
      [
        "la",
        "b"
      ],
      [
        "ari",
        "able"
      ],
      [
        "mo",
        "ve"
      ],
      [
        "g",
        "roup"
      ],
      [
        "Ġf",
        "unction"
      ],
      [
        "Ġr",
        "ange"
      ],
      [
        "f",
        "ind"
      ],
      [
        "Ġelement",
        "s"
      ],
      [
        "F",
        "rame"
      ],
      [
        "Ġ",
        "set"
      ],
      [
        "Ġcon",
        "vert"
      ],
      [
        "y",
        "pe"
      ],
      [
        "th",
        "er"
      ],
      [
        "ĠD",
        "ata"
      ],
      [
        "Ġ",
        "k"
      ],
      [
        "s",
        "h"
      ],
      [
        "ĠP",
        "andas"
      ],
      [
        "Ġa",
        "s"
      ],
      [
        "a",
        "ve"
      ],
      [
        "i",
        "f"
      ],
      [
        "c",
        "ode"
      ],
      [
        "Ġd",
        "f"
      ],
      [
        "ul",
        "t"
      ],
      [
        "Ġm",
        "a"
      ],
      [
        "Ġu",
        "se"
      ],
      [
        "for",
        "mat"
      ],
      [
        "s",
        "um"
      ],
      [
        "t",
        "t"
      ],
      [
        "Ġm",
        "at"
      ],
      [
        "Ġo",
        "bject"
      ],
      [
        "Ġnumb",
        "er"
      ],
      [
        "iz",
        "e"
      ],
      [
        "Ġax",
        "is"
      ],
      [
        "Ġ",
        "en"
      ],
      [
        "Ġp",
        "a"
      ],
      [
        "u",
        "te"
      ],
      [
        "Ġv",
        "ariable"
      ],
      [
        "'",
        "s"
      ],
      [
        "Ġn",
        "ame"
      ],
      [
        "Ġcolumn",
        "s"
      ],
      [
        "Ġ",
        "How"
      ],
      [
        "Ġp",
        "ar"
      ],
      [
        "que",
        "st"
      ],
      [
        "']",
        ")"
      ],
      [
        "ma",
        "ge"
      ],
      [
        "c",
        "at"
      ],
      [
        "m",
        "ap"
      ],
      [
        "se",
        "lf"
      ],
      [
        "z",
        "ip"
      ],
      [
        "o",
        "me"
      ],
      [
        "Ġin",
        "dex"
      ],
      [
        "Ġon",
        "e"
      ],
      [
        "Ġdi",
        "ct"
      ],
      [
        "Ġt",
        "ime"
      ],
      [
        "ta",
        "in"
      ],
      [
        "il",
        "ter"
      ],
      [
        "Ġi",
        "t"
      ],
      [
        "re",
        "ad"
      ],
      [
        "Ġ",
        "le"
      ],
      [
        "()",
        "."
      ],
      [
        "Ġm",
        "y"
      ],
      [
        "ec",
        "k"
      ],
      [
        "lab",
        "el"
      ],
      [
        "Ġs",
        "p"
      ],
      [
        "(",
        "['"
      ],
      [
        "f",
        "ig"
      ],
      [
        "ge",
        "x"
      ],
      [
        "s",
        "on"
      ],
      [
        "Ġ",
        "U"
      ],
      [
        "Ġ",
        "me"
      ],
      [
        "Ġ",
        "j"
      ],
      [
        "(",
        "("
      ],
      [
        "um",
        "py"
      ],
      [
        "at",
        "ing"
      ],
      [
        "ind",
        "ow"
      ],
      [
        "f",
        "oo"
      ],
      [
        "date",
        "time"
      ],
      [
        "Ġc",
        "reate"
      ],
      [
        "Ġfor",
        "mat"
      ],
      [
        "and",
        "om"
      ],
      [
        "d",
        "u"
      ],
      [
        "or",
        "e"
      ],
      [
        "ax",
        "is"
      ],
      [
        "pl",
        "y"
      ],
      [
        "ap",
        "e"
      ],
      [
        "Ġa",
        "dd"
      ],
      [
        "i",
        "el"
      ],
      [
        "te",
        "g"
      ],
      [
        "Ġth",
        "at"
      ],
      [
        "iel",
        "d"
      ],
      [
        "Ġa",
        "p"
      ],
      [
        "ri",
        "pt"
      ],
      [
        "a",
        "ck"
      ],
      [
        "ss",
        "ion"
      ],
      [
        "ord",
        "er"
      ],
      [
        "Ġstring",
        "s"
      ],
      [
        "item",
        "s"
      ],
      [
        "']",
        "."
      ],
      [
        "ode",
        "l"
      ],
      [
        "ou",
        "r"
      ],
      [
        "Ġma",
        "ke"
      ],
      [
        "G",
        "et"
      ],
      [
        "p",
        "h"
      ],
      [
        "Ġ",
        "B"
      ],
      [
        "Ġf",
        "ind"
      ],
      [
        "Ġp",
        "o"
      ],
      [
        "te",
        "st"
      ],
      [
        "sy",
        "s"
      ],
      [
        "Ġw",
        "ord"
      ],
      [
        "I",
        "n"
      ],
      [
        "a",
        "ge"
      ],
      [
        "i",
        "es"
      ],
      [
        "le",
        "ct"
      ],
      [
        "ĠData",
        "Frame"
      ],
      [
        "in",
        "ter"
      ],
      [
        "w",
        "e"
      ],
      [
        "Ġsp",
        "ec"
      ],
      [
        "u",
        "re"
      ],
      [
        "1",
        "0"
      ],
      [
        "Ġn",
        "p"
      ],
      [
        "ĠD",
        "jango"
      ],
      [
        "sor",
        "ted"
      ],
      [
        "p",
        "er"
      ],
      [
        "pen",
        "d"
      ],
      [
        "']",
        ","
      ],
      [
        "Ġn",
        "ot"
      ],
      [
        "b",
        "ar"
      ],
      [
        "Ġ",
        "6"
      ],
      [
        "lo",
        "at"
      ],
      [
        "Ġ",
        "E"
      ],
      [
        "Ġ",
        "or"
      ],
      [
        "lo",
        "c"
      ],
      [
        "u",
        "ment"
      ],
      [
        "ic",
        "ode"
      ],
      [
        "Ġdate",
        "time"
      ],
      [
        "i",
        "v"
      ],
      [
        "s",
        "v"
      ],
      [
        "ur",
        "l"
      ],
      [
        "p",
        "d"
      ],
      [
        "arg",
        "s"
      ],
      [
        "o",
        "ther"
      ],
      [
        "))",
        ")"
      ],
      [
        "val",
        "ue"
      ],
      [
        "Ġ",
        "['"
      ],
      [
        "re",
        "ct"
      ],
      [
        "m",
        "in"
      ],
      [
        "(",
        "*"
      ],
      [
        "s",
        "i"
      ],
      [
        "Ġ",
        "len"
      ],
      [
        "ir",
        "st"
      ],
      [
        "I",
        "s"
      ],
      [
        "Ġ",
        "{"
      ],
      [
        "ra",
        "ct"
      ],
      [
        "val",
        "ues"
      ],
      [
        "Ġin",
        "teg"
      ],
      [
        "Ġar",
        "g"
      ],
      [
        "b",
        "le"
      ],
      [
        "Ġcharact",
        "ers"
      ],
      [
        "]",
        "]"
      ],
      [
        "m",
        "p"
      ],
      [
        "m",
        "l"
      ],
      [
        "Ġ",
        "str"
      ],
      [
        "Ġg",
        "roup"
      ],
      [
        "Ġre",
        "move"
      ],
      [
        "ig",
        "n"
      ],
      [
        "Ġcol",
        "or"
      ],
      [
        "c",
        "ur"
      ],
      [
        "Ġspec",
        "if"
      ],
      [
        "Ġb",
        "ase"
      ],
      [
        "in",
        "es"
      ],
      [
        "r",
        "ow"
      ],
      [
        "group",
        "by"
      ],
      [
        "a",
        "st"
      ],
      [
        "Ġth",
        "ere"
      ],
      [
        "w",
        "rite"
      ],
      [
        "ar",
        "t"
      ],
      [
        "it",
        "ion"
      ],
      [
        "a",
        "ch"
      ],
      [
        "las",
        "s"
      ],
      [
        "F",
        "ind"
      ],
      [
        "Ġ",
        "W"
      ],
      [
        "a",
        "li"
      ],
      [
        "(",
        "?"
      ],
      [
        "ve",
        "l"
      ],
      [
        "Ġo",
        "ut"
      ],
      [
        "Ġrow",
        "s"
      ],
      [
        "Con",
        "vert"
      ],
      [
        "pro",
        "cess"
      ],
      [
        "[",
        "("
      ],
      [
        "]",
        "."
      ],
      [
        "e",
        "p"
      ],
      [
        "e",
        "ad"
      ],
      [
        "Ġan",
        "other"
      ],
      [
        "\"\"\"",
        "."
      ],
      [
        "Ġnumb",
        "ers"
      ],
      [
        "i",
        "x"
      ],
      [
        "gg",
        "ing"
      ],
      [
        "o",
        "st"
      ],
      [
        "lo",
        "se"
      ],
      [
        "il",
        "l"
      ],
      [
        "i",
        "ter"
      ],
      [
        "1",
        "2"
      ],
      [
        "u",
        "st"
      ],
      [
        "g",
        "ra"
      ],
      [
        "v",
        "ing"
      ],
      [
        "/",
        "/"
      ],
      [
        "Ġtuple",
        "s"
      ],
      [
        "Q",
        "L"
      ],
      [
        "er",
        "y"
      ],
      [
        "Ġ",
        "\""
      ],
      [
        "k",
        "inter"
      ],
      [
        "ff",
        "er"
      ],
      [
        "P",
        "andas"
      ],
      [
        "ul",
        "ar"
      ],
      [
        "Ġin",
        "t"
      ],
      [
        "xt",
        "ract"
      ],
      [
        "te",
        "xt"
      ],
      [
        "'",
        "}"
      ],
      [
        "Ġs",
        "plit"
      ],
      [
        "o",
        "pen"
      ],
      [
        "Ġb",
        "e"
      ],
      [
        "Ġwith",
        "out"
      ],
      [
        "c",
        "ount"
      ],
      [
        "h",
        "t"
      ],
      [
        "Ġmat",
        "ch"
      ],
      [
        "Ġspecif",
        "ic"
      ],
      [
        "s",
        "ort"
      ],
      [
        "Ġbase",
        "d"
      ],
      [
        "er",
        "ate"
      ],
      [
        "Ġp",
        "rint"
      ],
      [
        "n",
        "ew"
      ],
      [
        "r",
        "or"
      ],
      [
        "C",
        "h"
      ],
      [
        "Ġre",
        "gex"
      ],
      [
        "Ġe",
        "ach"
      ],
      [
        "Ġb",
        "et"
      ],
      [
        "ro",
        "ot"
      ],
      [
        "ser",
        "t"
      ],
      [
        "l",
        "ine"
      ],
      [
        "u",
        "ti"
      ],
      [
        "an",
        "y"
      ],
      [
        "]",
        "))"
      ],
      [
        "o",
        "c"
      ],
      [
        "find",
        "all"
      ],
      [
        "d",
        "er"
      ],
      [
        "at",
        "or"
      ],
      [
        "re",
        "place"
      ],
      [
        "Ġ",
        "H"
      ],
      [
        "an",
        "s"
      ],
      [
        "Ġsc",
        "ript"
      ],
      [
        "al",
        "se"
      ],
      [
        "ex",
        "ec"
      ],
      [
        "Ġch",
        "eck"
      ],
      [
        "ma",
        "in"
      ],
      [
        "S",
        "O"
      ],
      [
        "o",
        "bject"
      ],
      [
        "p",
        "on"
      ],
      [
        "s",
        "c"
      ],
      [
        "Ġ",
        "J"
      ],
      [
        "or",
        "k"
      ],
      [
        "Ġw",
        "e"
      ],
      [
        "ou",
        "p"
      ],
      [
        "we",
        "en"
      ],
      [
        "w",
        "ord"
      ],
      [
        "Ġ",
        "G"
      ],
      [
        "Ġ",
        "O"
      ],
      [
        "ar",
        "ch"
      ],
      [
        "tt",
        "p"
      ],
      [
        "('",
        "\\\\"
      ],
      [
        "Ġi",
        "mage"
      ],
      [
        "s",
        "ave"
      ],
      [
        "t",
        "xt"
      ],
      [
        "Ġ",
        "{'"
      ],
      [
        "Ġ",
        "order"
      ],
      [
        "Ġf",
        "irst"
      ],
      [
        "tr",
        "ing"
      ],
      [
        "Ġ",
        "zip"
      ],
      [
        "Ġre",
        "ad"
      ],
      [
        "a",
        "le"
      ],
      [
        "ap",
        "p"
      ],
      [
        "[:",
        ","
      ],
      [
        "at",
        "ter"
      ],
      [
        "li",
        "c"
      ],
      [
        "ri",
        "x"
      ],
      [
        "ari",
        "es"
      ],
      [
        "Ġitem",
        "s"
      ],
      [
        "for",
        "m"
      ],
      [
        "Ġ",
        "('"
      ],
      [
        "pre",
        "ssion"
      ],
      [
        "ri",
        "ver"
      ],
      [
        "f",
        "a"
      ],
      [
        "h",
        "en"
      ],
      [
        "Ġbet",
        "ween"
      ],
      [
        "P",
        "y"
      ],
      [
        "Ġo",
        "pen"
      ],
      [
        "Ġs",
        "ort"
      ],
      [
        "b",
        "in"
      ],
      [
        "Ġ",
        "qu"
      ],
      [
        "Ġkey",
        "s"
      ],
      [
        "am",
        "ple"
      ],
      [
        "lo",
        "ad"
      ],
      [
        "')",
        ","
      ],
      [
        "ĠL",
        "ist"
      ],
      [
        "i",
        "ve"
      ],
      [
        "gra",
        "m"
      ],
      [
        "d",
        "out"
      ],
      [
        "Ġ",
        "/"
      ],
      [
        "Ġ",
        "R"
      ],
      [
        "('",
        "\\"
      ],
      [
        "Ġs",
        "ame"
      ],
      [
[...]
